{"mock":19489,"it":256,"solves":18219,"tao":27458,"##eto":9037,"##ission":1239,"score":2867,"##obil":9739,"0.0001":10464,"dev":1670,"##stud":10633,"adhe":4098,"adiabatic":24779,"##retest":30089,"0.46":24409,"##room":9272,"instructor":24038,"##fix":21658,"attributable":14008,"room":4095,"edited":13293,"##1[":22687,"##around":25293,"##ococcus":9236,"encaps":11712,"examples":3676,"synthetase":27842,"representatives":16154,"##project":18854,"hierarchy":8944,"##wn":17914,"##期":30787,"quark":12526,"name":5147,"welfare":9078,"##rand":28561,"##resh":5440,"##rella":24894,"##yder":29392,"divisions":21082,"##ker":3836,"effectiveness":4826,"proced":1614,"noc":11515,"her":1750,"Â":21692,"hc":5791,"##.28":14386,"desire":13072,"##iler":13744,"drei":29847,"##formation":687,"illustration":14207,"##medical":21283,"bruce":21970,"perturbations":13352,"##gg":3177,"emitted":16323,"depicts":14356,"##encies":2698,"st":177,"##reshold":2643,"(35)":18516,"spind":13778,"racial":14471,"[19]":9842,"##conjug":11935,"hir":11505,"propag":4314,"backscat":21305,"presup":29739,"##dy":8134,"em":562,"jama":17394,"attain":11636,"suspect":19857,"arri":5391,"##oken":16400,"optimizations":21338,"##ignant":28675,"dur":675,"##orphism":17957,"##controlled":9527,"##vit":20452,"buffer":3520,"##解":30875,"##ȧ":30746,"jac":8835,"hypogly":16847,"##local":10432,"entity":8494,"reductase":16002,"stre":4291,"##vm":12986,"textures":25419,"##ts":203,"eigen":4848,"larg":1650,"2/3":27715,"##,000":23848,"pot":985,"newman":24909,"denominator":21066,"compost":23700,"news":9340,"(14":12007,"embr":3906,"##where":5089,"andr":21386,"cloud":4744,"fo":2941,"##imburs":26749,"ask":9974,"##aceae":10244,"##op":237,"nomencl":20774,"(3.":11905,"irradiance":24246,"##analy":12047,"osteoclast":23784,"##ognitive":17710,"bibli":16537,"##rep":8144,"equations":3144,"(1.8":29577,"litigation":27226,"casc":8174,"##chip":12149,"fischer":19293,"##̆":30494,"##.),":7335,"visualization":7831,"cyber":14340,"critic":12767,"##polymer":23323,"ck":6569,"cytosolic":14856,"dv":8647,"cronbach":25083,"0;":9805,"##while":9250,"endocrinology":20798,"sludge":16524,"territory":18783,"wider":10147,"##<0.001).":24925,"andere":24583,"environ":1230,"carib":25347,"stress":1893,"##ifier":5254,"bite":27564,"(9).":17012,"comfort":12774,"##sed":1162,"stip":25770,"59.":21415,"(1.6":29410,"parabolic":21490,"##burg":6285,"##optim":8135,"pear":9907,"equation":2037,"##ordering":27103,"##cnt":21351,"[unused47]":48,"##ophy":8213,"##ж":30517,"##ax":632,"##aire":11743,"(20":8126,"##enced":2984,"aqp":24627,"publication":5138,"still":2077,"customized":22359,"nigeria":17964,"divergent":16662,"instantiation":30082,"dos":3460,"pur":1434,"unim":18370,"vietnam":24982,"implementing":9380,"##ectively":1050,"drosophila":10760,"neurom":14482,"##hk":14568,"##ahashi":21358,"pages":5873,"##ants":773,"leaf":5513,"filament":14040,"##ry":1212,"post":1422,"springer":8502,"―":23190,"coded":10895,"##ably":1895,"forthcoming":26827,"anast":14514,"quantity":6725,"nih":11672,"##ires":6847,"##liche":10649,"prescriptions":24051,"governmental":26342,"jets":22821,"##willi":24759,"##ved":749,"##selectin":24657,"ken":10248,"##文":30735,"##unity":26992,"subcl":24335,"endothelial":5700,"learn":6714,"##20].":25042,"2002),":16860,"rainbow":28537,".2":6324,"atmosphere":9680,"disease":1288,"##–28":23993,"tg":7720,"##tert":22594,"axonal":16967,"monkey":17526,"##机":31076,"disper":6629,"victor":16309,"##valu":10208,"##threatening":23469,"anticipation":29770,"ventricular":6954,"susp":4021,"diseased":24517,"reservoir":10909,"dof":28889,"mrp":27900,"##rystalline":20986,"vertices":5999,"##alanine":19197,"rit":14659,"pulsed":16602,"quote":29652,"bridging":20490,"aged":6485,"##π":30199,"##dal":23955,"pcc":22698,"##html":9860,"inhabit":21364,"13).":25926,"164":19507,"##liter":23416,"becoming":9605,"diagnosed":6296,"ct":2493,"1986":20274,"corrective":28681,"##91.":27843,"contracts":13612,"##difference":24612,"shells":23898,"implicitly":16113,"##idents":12134,"sums":17791,"cme":29683,"chap":3953,"##ichen":12411,"##onto":12965,"viewpoint":15519,"##159":25272,"##ential":935,"[unused94]":95,"microsoft":16491,"##bro":7519,"##±2":26894,"epiderm":9821,"gad":14366,"##cortical":21487,"quiet":23731,"##seed":22764,"ageing":18143,"bob":14701,"knock":6928,"occupational":11069,"taking":3841,"abst":20098,"##과":30596,"##onate":15091,"##B":30504,"(1997)":12100,"##apac":26052,"predicts":11389,"intensive":7694,"##978":28384,"##phosph":5952,"##oir":9682,"rib":5587,"hope":9859,"##pg":12466,"mé":9948,"##inks":21289,"hopf":28006,"##ativeness":26147,"266":26042,"evidenced":14945,"##aked":23256,"–1":19390,"befund":22701,"##kur":27222,"##ƒ":30668,"flow":1505,"##◦,":28262,"postgraduate":29845,"##2-":2535,"tran":1860,"eligibility":19420,"##oreal":26458,"acr":14290,"##ymmetric":12805,"1|":25246,"pdms":23627,"microbial":7976,"##ulae":24890,"##uz":2717,"leu":16700,"##acs":9982,"##–[":12925,"continually":24681,"##·":30173,"2008,":8021,"##方":30610,"specify":9753,"advances":8054,"parv":27517,"employing":10364,"activated":4891,"implant":6251,"(2015).":20686,"irradiation":8896,"##din":15703,"≥":2345,"##enin":12280,"sequ":1000,"##trim":21898,"amend":17042,"##amers":15062,"ica":17130,"##4);":28520,"alberta":26876,"aml":15060,"bolus":20928,"ifn":6932,"attention":3577,"angel":13483,"antagon":6614,"6)":10065,"shareholders":25685,"##otes":9890,"##significant":18418,"cag":21197,"texts":13265,"##0.8":12525,"##ções":16605,"outlined":11164,"outliers":15125,"unknown":4384,"skilled":18778,"effic":21124,"isolates":6197,"##atc":17543,"##ectic":13708,"terminated":17624,"satellites":21561,"##opoul":16180,"schwann":24803,"√":3809,"##ata":2376,"inconsistencies":25087,"##wide":5615,"purification":9951,"##phan":19091,"##わ":30888,"seemed":12441,"sprague":25006,"incorpor":3723,"fashion":8813,"avoid":2946,"immunostaining":18343,"mathematics":8640,"coincident":25990,"##化":30567,"vector":2069,"ridge":15875,"governed":17384,"ẽ":27619,"convincing":24237,"plastic":6541,"1984.":24912,"under":604,"##0":30131,"##lps":25131,"##neigh":20065,"##tivity":707,"##uminal":26638,"momentum":8729,"intriguing":17271,"dexamethasone":18881,"##96":3576,"syn":977,"investigator":17379,"weed":27264,"##±":30179,"##using":8200,"howard":23177,"23,":9532,"local":1338,"##male":19268,"jh":13377,"##ocor":10836,"potentials":8561,"##environ":11169,"deliber":21676,"hq":25425,"vendor":22439,"(0.01":21978,"##eping":16208,"mcg":18728,"reliably":14767,"pac":6016,"gas":2704,"(0.7":24394,"eve":28956,"workplace":16727,"subd":17013,"##phosphory":15361,"esi":18739,"baro":24010,"##fact":4835,"54.":22846,"##生":30597,"tropical":10576,"einzel":18137,"confluent":28412,"(13).":18665,"xenograft":25910,"##green":10907,"symptomatic":12104,"##–2":5649,"##oph":1295,"transpos":20553,"##71":6590,"##rz":25026,"spatially":11825,"zurich":27402,"##eness":2937,"##−1.":12299,"please":8611,"[unused79]":80,"agenda":18517,"conversation":17541,"passenger":24566,"deng":14780,"0.7":4622,"zeiss":22600,"finland":15057,"rps":25710,"##irds":23586,"migrants":23492,"contamin":9984,"##arks":25535,"##legal":19467,"5.":2026,"masses":9686,"15.0":28232,"grande":27208,"ui":8442,"##trig":18437,"deviate":25294,"keratinocytes":22526,"bor":6474,"[95%":26964,"##vitamin":28523,"cary":24592,"coordinator":22199,"##business":22181,"##artments":8998,"##reduced":25336,"malignancies":16162,"firms":5244,"org":6219,"schon":19892,"ige":16106,"accum":3465,"perox":15691,"##sma":26455,"devised":21257,"##]]":16668,"fingers":19204,"naoh":18451,"coherence":10632,"##electric":24319,"aro":25497,"greedy":15791,"diam":12166,"immunobl":12596,"-7":27257,"##transcription":23056,"antagonism":30058,"groove":23680,"economy":7425,"preliminary":6538,"micrornas":26023,"swallow":19558,"services":2522,"letter":9584,"mate":18332,"##й":30442,"##alloc":26410,"293":16802,"bowel":11321,"##speed":12716,"##imm":4076,"heritability":25133,"magnification":15144,"##1%)":18331,"##cer":736,"##006":19818,"variances":16334,"poison":17424,"##.5%,":29816,"evidently":24159,"percentile":15659,"property":3713,"spacetime":24153,"antigen":5679,"##7%":6074,"euk":12433,"ding":20649,"##ain":219,"legislative":24586,"##ك":30554,"mal":1774,"##28":2557,"cord":7302,"##)).":7026,"portr":24484,"##(+)":22030,"reid":28628,"cross":2057,"omn":21655,"impacted":18968,"##:10":13206,"reusable":29028,"##strateg":25334,"cannula":29678,"##ulas":21677,"##plement":1091,"milk":7435,"declaration":15516,"undefined":29506,"coma":28068,"gev":13704,"##oglob":6705,"##ski":6432,"assess":1285,"##electron":16091,"flood":9777,"reagent":10686,"discriminative":20900,"##iu":20493,"##igen":2974,"##科":30923,"performance":1150,"(33":22031,"abr":17936,"##-00":12892,"epithelium":10532,"firm":5205,"0.05.":16014,"##phia":17534,"hcl":14035,"##ŷ":30404,"bar":2261,"chor":14777,"bred":29345,"##inform":24126,"abundance":6743,"suffix":22948,"##dashed":24704,"loss":1738,"nich":15919,"stellar":14962,"competitor":29084,"ml":1965,"advantageous":17447,"though":2461,"bimodal":29548,"schedules":16825,"##borns":22785,"biolog":26543,"##ative":456,"dx":5821,"cip":15824,"understood":6567,"jar":20054,"campaign":11611,"farm":5947,"nanoscale":20083,"##agu":27203,"steroid":11809,"view":1791,"enclosed":24182,"##heng":12021,"forest":5518,"kindly":23622,"##oting":16777,"##opathology":19479,"##10-":18008,"negative":1980,"charged":8839,"flic":25866,"valu":6655,"lyophil":27225,"ligase":22038,"handbook":18630,"11).":21494,"turbulent":16663,"curvature":9482,"pension":21894,"##240":29494,"plated":17039,"confident":22419,"biologically":16001,"(2007).":12788,"unre":8361,"##ming":9050,"coul":15158,"##–3":5650,"(4":1656,"(14).":18997,"##normal":3632,"slices":11039,"##off":2417,"fed":4140,"##uld":452,"##ulose":8725,"(1)":2226,"unin":20821,"blank":13658,"competency":24849,"##read":1772,"mutagenesis":16665,"2010),":17081,"##yg":22346,"estimators":15390,"##20":1487,"shows":1402,"allocations":26267,"neurol":15237,"##7:":9258,"3.4":5937,"ribosomal":16786,"##.29":15164,"oxid":3035,"##2;":2543,"##oprop":13978,"trast":28522,"erbb":23867,"xo":29698,"##lig":5474,"congen":10259,"289":27349,"forms":3444,"++":12692,"sion":27393,"weather":10844,"1)(":20833,"##‖2":10039,"##2,3":25611,"arm":4998,"207":22047,"rationale":13710,"##field":5469,"economic":3587,"dispute":29810,"vigil":26635,"##thread":20477,"##3.1":15000,"integrator":27784,"scenari":3199,"homo":19377,"##mat":4788,"##self":10321,"##online":14131,"##̃":30209,"wilson":11632,"confers":25952,"(1994)":13890,"##א":30637,"ree":17517,"##⋅":30287,"##fes":29858,"envelope":11357,"clar":6683,"##oth":570,"##lands":5400,"prion":27395,"##etts":11868,"##♥":30599,"optimally":19653,"regulatory":5418,"##height":27151,"silent":19353,"https":6558,"camera":5859,"kansas":28570,"##-0.":21573,"advance":7557,"chem":1189,"cochrane":14697,"davies":23351,"parap":27633,"nontrivial":19867,"##putation":10944,"substitu":20557,"[21,":20286,"conference":4558,"oxidation":6648,"##ayan":21840,"##bly":3269,"##:5":7182,"##idades":26252,"toll":19092,"##.7,":25567,"##foot":22001,"damaged":13975,"##ovol":18038,"##oud":4257,"##isive":25479,"proved":5778,"##ancer":10145,"cec":18394,"parenchymal":29751,"marginal":7468,"##dawley":29852,"pronoun":29213,"potential":1411,"spheres":15803,"fading":12854,"##opulmonary":20865,"##,7":26063,"##atch":7396,"neue":28732,"dependent":3644,"hmg":21443,"##according":28225,"##inea":14536,"subt":15444,"orf":16947,"pfc":22087,"##rence":2559,"##spin":21459,"##uga":27681,"omega":22431,"arrhythmia":25142,"(28":20776,"##rin":6478,"1960":14992,"siblings":19629,"##ks":784,"##inin":11947,"worse":8946,"reproduce":13959,"##species":15683,"sentinel":27542,"cavity":7553,"##osphate":23275,"advertisement":27314,"##hcl":13432,"arthroplasty":21962,"stabilized":15442,"orientations":14975,"inn":3438,"##yroidism":17738,"groups":1302,"pk":5689,"infrequ":19875,"pul":2236,"estimated":2595,"0.9":4938,"д":23409,"[unused74]":75,"prefrontal":16046,"implicated":9962,"equivalence":9357,"dermal":20568,"wegen":30052,"theorems":14111,"imped":7083,"us":227,"##wir":14546,"domestic":8070,"graduate":10530,"##onymous":18599,"##jm":17416,"transf":4145,"syllable":23822,"cck":27802,"C":23684,"software":2031,"##][":13691,"sever":1180,"docetaxel":28261,"intervals":5115,"##hift":29920,"##itic":12234,"hsc":16896,"dc":4002,"remotely":26029,"buffering":25742,"bids":25915,"minister":24616,"delineate":29307,"rotor":11529,"concentrated":8899,"opportunities":7524,"parse":24199,"jud":4575,"(∆":19748,"##ective":835,"4,":3040,"fd":9103,"mutually":14853,"##kd":13076,"atrophy":14093,"##variable":20531,"independ":4615,"##tration":6174,"##auf":9241,"(11)":7231,"##の":30317,"dsp":19291,"particle":4166,"mining":7566,"claimed":15446,"syndromes":15949,"##onstr":1355,"##likely":8383,"deriving":18550,"##ograft":14539,"##sum":10228,"##iction":4341,"largest":5525,"##filter":26732,"##fulness":17515,"workspace":27797,"inheritance":15515,"acetylcholine":20626,"##tation":23234,"developed":1815,"(17)":9471,"edu":27457,"120":5897,"##–29":26682,"##chemical":9541,"##(~":15394,"evolved":11150,"nests":24212,"##apor":8336,"##agner":18163,"##centre":26533,"##ط":30591,"##enk":20044,"##we":1587,"73,":27972,"##oxfordjournals":20762,"canopy":16874,"##avas":19968,"formalized":26609,"##itate":12956,"urg":21392,"calculate":4978,"popl":27544,"##=0,":23236,"zircon":29567,"delir":26536,"sophistic":11272,"##ethn":27430,"mimic":13886,"lumen":14508,"loci":8603,"respir":4518,"herz":19514,"preceded":20182,"accumulated":11194,"timest":21722,"##ulation":595,"306":27962,"llc":20838,"sarcoma":19676,"##plantation":19009,"##ц":30477,"##akis":15131,"trends":6071,"405":25681,"##어":30877,"36.":13284,"##11":1199,"##media":18345,"aux":8190,"##conversion":27156,"##fields":28180,"##aras":29621,"directions":6330,"##39/":27390,"2008":4676,"##ptp":23599,"pao":29846,"codeword":25830,"pharma":29644,"##ting":586,"##his":12096,"circulatory":27815,"invertible":23282,"cohorts":13115,"nations":14461,")+":29866,"appeal":21118,"mt":4969,"##lessness":29869,"##loss":13349,"##404":28022,"chand":18691,"bioin":12632,"translated":11742,"immunosup":12718,"##gin":10794,"##,’":27988,"citations":20333,"##hea":11718,"reasons":4679,"gx":26151,"polymorphisms":11425,"##ン":30509,"predictor":8325,"thymus":21064,"saturated":11890,"62,":24165,"##oot":8897,"uu":27926,"roles":5370,"ned":10475,"point":1313,"##≫":30569,"zur":6494,"390":26141,"disparity":16885,"##urable":8620,"duty":13633,"(5.":13883,"9.3":23266,"brownian":21203,"photons":13479,"occupations":26598,"##oxane":29051,":0":29904,"whenever":9108,"##rench":7311,"##omes":2192,"kolmogorov":27305,"hospitalization":13972,"##egfp":24552,"gee":28954,"slowing":25898,"altered":6525,"fcs":20944,"##all":373,"##–24":18330,"##.2)":6596,"ims":27002,"raise":12517,"nausea":18816,"credit":8388,"continuation":17924,"glutamine":19518,"accepts":23031,"##consistent":23725,"overlay":16820,"##aacrjournals":18566,"##tiz":19972,"detections":26366,"detection":1995,"2005;":5891,"##].":485,"absorbance":11693,"##unate":28649,"plural":22533,"greek":22173,"factorization":17364,"no":425,"parti":1947,"##unk":6641,"tibial":17888,"analytics":21564,"##gestion":8933,"##ient":2459,"[22,":20771,"tangent":16186,"anderen":18870,"mon":775,"tertiary":14024,"##✳":31084,"[6],":12035,"debris":16971,"christ":10492,"adj":1912,"suggest":1739,"separately":6695,"##prot":8353,"##ategories":29717,"kits":20697,"constell":20144,"##lin":3265,"[unused6]":7,"introns":27082,"cnts":24303,"dehydrogen":11721,"##mj":19466,"rob":1969,"##tik":15029,"338":26284,"pasc":24395,"##amol":26722,"corrid":26477,"apoptotic":10514,"##down":4595,"1≤":24500,"##odon":13150,"methodology":4964,"intramuscular":23937,"clot":16451,"##cemic":15565,"acc":542,"(4.2":19257,"realize":11877,"##0+":23823,"viscer":16223,"aip":21527,"spark":20600,"acetyl":10592,"seldom":24121,"suff":2213,"sinusoidal":17389,"devoid":26725,"##하":30489,"##程":30857,"officers":21474,"benz":9642,"7,":4762,"backbone":13758,"qing":29612,"mixer":28494,"twice":6279,"personal":4026,"##15":1567,"neurolog":5776,"##achusetts":13344,"interconnection":21384,"##annt":23858,"goldberg":27754,"parallelism":16637,"applicability":13214,"##.30":13602,"evaluates":18224,"smc":20597,"##uginosa":14835,"pin":7126,"##hep":15253,"maybe":20660,"cataract":20997,"andrew":19734,"conducting":11842,"##1.6":15999,"refers":7648,"dim":5107,"evening":23459,"extent":3796,"gcc":27614,"##guided":16953,"dive":22938,"seriously":18921,"##terminal":6346,"п":14620,"188":16746,"highlighting":18579,"[unused11]":12,"neuroimaging":20222,"ibm":14195,"##yma":19263,"##tern":724,"february":6497,"fuzzy":4942,"##cambridge":19591,"##cribed":6374,"plug":12106,"attempt":5809,"latter":4085,"##ston":11933,"pé":21479,"balb":18700,"seamless":24236,"manipulator":23673,"reich":23499,"compensated":16592,"neuroprotective":24276,"floating":15440,"raises":13807,"carbonyl":19718,"lying":17311,"##angers":20165,"lambda":22964,"##rs":2771,"scia":29791,"##ی":30384,"squee":27707,"sexes":19774,"pharmacokine":12464,"##from":6973,"durable":28424,"photovol":21320,"##cover":20655,"dissatisf":24055,"estim":918,"logic":4856,"##%%":29334,"##ðs":24658,"postprandial":29849,"amen":17300,"##65.":28074,"##very":18904,"accepted":3649,"∅":10485,"integrals":16996,"pdgf":20692,"johann":28011,"##reviewed":15206,"refuge":21221,"##α":30169,"(8),":19944,"##represent":12219,"##opos":18302,"##–43":29186,"xiao":20800,"finer":22732,"2001)":15401,"##stokes":28259,"image":1572,"admin":2363,"esp":15639,"assignment":7265,"dir":10003,"##reaction":29586,"reasonably":13520,"transmitting":15917,"##137":7541,"##ul":161,"##118":21964,"##리":30883,"suicidal":23973,"##arbon":18495,"hypother":22254,"expectations":8784,"##zs":22882,"thrombin":18194,"accelerate":17645,"statements":9298,"##★":30988,"binary":5067,"9].":26644,"##omotor":19062,"loud":21159,"anat":5628,"##dered":6826,"42":4637,"exercises":15106,"verbs":19110,"stein":14869,"##ellig":5193,"dure":17144,"##oxidation":21871,"medicinal":16796,"##器":31034,"robert":12023,"##20)":25883,"thermo":18124,"xv":25568,"shore":22266,"ligation":16823,"physicochemical":22812,"expenses":22197,"##assess":17285,"adjust":4805,"fill":5104,"preferential":18945,"##bk":18046,"378":24123,"##illus":9941,"##38,":22285,"##rocy":5794,"reperfusion":16230,"z":447,"mass":1745,"rd":5057,"lanes":16442,"advice":11402,"slide":15885,"modulation":5852,"##fold":3671,"##static":10089,"##reen":2544,"drug":1698,"processes":2125,"discourse":12582,"dissected":18911,"bow":7570,"draws":20517,"##799":28312,"singular":8453,"choosing":8809,"libr":4335,"revision":9228,"perceived":5545,"##oka":14738,"suite":13095,"##iden":9875,"##gle":11840,"##ín":20119,"kaw":15831,"##elfare":8989,"predicted":3739,"pressing":23468,"bernstein":28973,"suitable":4279,"stone":13896,"0.95":14884,"##-31":25992,"gal":4045,"del":1194,"##obia":24022,"finally":2285,"improve":1658,"examine":4423,"erythrocyte":21460,"gamm":30042,"biochemistry":12039,"scin":15947,"acknowledgments":6956,"irradi":6394,"##ibria":16284,"evident":6899,"solution":1368,"saudi":23065,"##uelle":29053,"creek":26333,"executions":29386,"anch":9648,"##関":30783,"mills":26527,"spectroscop":6424,"##service":16357,"##white":13453,"bioinformatics":15249,"##kim":19485,"##ei":6422,"erken":23801,"rest":2619,"##ommod":9591,"approxim":1660,"...,":7622,"##ophosph":11090,"universidad":21616,"##terminus":18820,"##ican":17076,"x":412,"##dp":5673,"##5%).":29057,"tom":5653,"##versely":6642,"##hospital":15097,"count":2232,"(1986).":29404,"##bund":25867,"##new":5588,"##36.":25135,"pile":27659,"damages":19581,"description":3756,"dictionary":13050,"sax":21440,"davidson":27363,"jeff":16441,"lw":19376,"##ateg":1360,"##pressure":18660,"mtt":17858,"allen":13302,"symbol":5888,"density":2027,"##":30933,"involved":2296,"payoffs":26756,"##hm":6313,"victim":9932,"pec":11385,"messenger":23704,"power":1221,"jitter":19296,"bomb":21216,"activities":2687,"##ikh":27885,"credibility":21238,"##programm":27699,"##achlor":26526,"psychological":6175,"##uktion":29199,"apl":24701,"galact":19934,"mach":2709,"implants":12546,"obje":25636,"##comple":29656,"makers":16781,"protection":4658,"vall":29091,"##plic":584,"difference":1673,"related":1482,"-1,":29157,"##4.":1220,"2007.":9002,"nut":3292,"air":2385,"arthro":17182,"street":10833,"prostatic":25103,"crp":14451,"nox":17520,"##kan":16083,"##performance":12695,"section":1155,"##adas":14932,"1985.":23767,"ingred":13986,"##5)":1251,"##hc":5548,"aligned":10016,"mr":2122,"retinoic":30081,"##±0.0":20559,"hug":15689,"##);":2383,"(28).":25911,"##次":30998,"gsh":15166,"##202":23336,"##ulsion":9481,"transitive":21960,"dent":9691,"oblig":11788,"##operative":3140,"anhydro":28378,"explos":22588,"##τ":30198,"##ospor":12810,"soph":10148,"2%":9614,"##@":30182,"nerve":5467,"##afting":24194,"barrel":28894,"##2)(":23918,"carboxyl":13526,"injective":27716,"##omorph":4722,"##1|":12737,"##293":17355,"##chl":18475,"##gen":729,"gat":19039,"deionized":23405,"prim":1136,"##the":1065,"coloring":25607,"algorith":900,"##¿":30343,"truly":15443,"##sw":3074,"anything":15138,"mortal":3285,"58":4878,"deformation":8800,"citizen":24070,"##–5":5683,"harsh":28451,"imposes":23099,"manufacturers":15843,"sustaining":29855,"withdrawn":24142,"codes":6095,"##ucine":29145,"impact":2141,"suggestive":17292,"resection":8229,"##С":30571,"bra":14525,"##ás":16047,"##oxygenase":18368,"weaker":11865,"drift":11356,"##8.9":21069,"##respon":7393,"nik":15748,"confirming":13800,"##isser":23338,"phi":23118,"building":4736,"wearing":27122,"galactose":29339,"hw":18690,"##=1":2355,"##cur":12450,"concentr":1112,"proposes":11606,"musculoskeletal":21109,"sug":917,"##idal":6306,"see":1461,"##computed":28799,"doubled":22529,"enclos":21955,"##tos":22013,"neurosci":7550,"rev":2243,"##consuming":19810,"discussing":16875,"##luor":13339,"##с":30285,"planned":10741,"##htm":19525,"(1994).":18774,"covariate":20574,"2003).":6568,"guarantees":12649,"2013),":20082,"prednis":20937,"consor":15263,"##oids":4692,"##ahan":25699,"##oston":11668,"[2],":11439,"ded":5240,"##standard":12217,"##A":30448,"(2015)":14011,"ready":12344,"presum":8416,"shortest":11507,"abstractions":26010,"##і":30485,"interfe":11818,"##り":30555,"institut":12999,"extensively":9188,"##ace":518,"##xo":29114,"radi":1476,"the":111,"loads":10012,"chromatin":9958,"##g":30123,"##odi":15777,"recognizes":20269,"pha":26753,"emerges":20108,"##lib":21930,"catheterization":26361,"##urine":24513,"##term":2203,"##intended":27921,"61.":24248,"incre":529,"##peg":11291,"##ight":455,"paralysis":25542,"0.34":17890,"which":334,"antidepressant":21247,"appointment":26279,"sucrose":11676,"##orge":12220,"##-2/":27976,"##ñ":30292,"classroom":12093,"##inter":3711,"integrate":10565,"xenografts":29197,"passed":9930,"ci":2313,"##statis":16948,"border":9398,"segregation":15323,"catast":20670,"##те":23397,"##tetr":15066,"strips":19111,"3′":23423,"saccades":30103,"rbc":19858,"##ÖÖ":22950,"ais":21799,"therein":17978,"analogy":16174,"ii":1264,"catalase":20287,"ino":25024,"##|2":10548,"eliminate":9225,"##wend":12826,"enthalpy":27929,"nail":26590,"betr":17583,"apolipoprotein":27166,"winning":20421,"##sitization":24511,"##∶":30847,"hypotheses":8138,"##(3,":20048,"combustion":15796,"##ronic":24155,"casp":20835,"##othe":19010,"pregn":4148,"ann":2796,"kines":27328,"reused":27928,"explosion":23100,"##io":1450,"boundary":3580,"svd":27415,"tard":28595,"numer":2590,"wan":22992,"##ferential":10683,"drople":10852,"##alth":880,"referred":5285,"##vern":24214,"corner":11881,"individuals":2374,"##brafish":15730,"##hydroxy":9339,"absent":8331,"##ums":12511,"inset":17901,"tomato":16657,"##unders":28356,"exceeded":15178,"shar":6103,"soll":17626,"##which":5890,"##-6":3296,"##weighted":10773,"cpt":21461,"10.110":17044,"1%":6800,"goats":27762,"uncondition":22648,"push":13078,"[(":12191,"##plo":9643,"rep":6295,"oss":18102,"##ef":5730,"##ima":7943,"6.7":20123,"lists":7439,"centre":5444,"arranged":13570,"##miss":17994,"68,":26295,"##usion":851,"##Ê":30446,"0.41":27547,"##inergic":17343,"##tual":28255,"##50,":17600,"##168":24808,"##five":15538,"merg":7876,"4).":5595,"##id":173,"standpoint":27606,"##fig":710,"##以":30621,"ethics":8507,"##arbonate":20808,"horizon":11894,"##([":15199,"arose":23052,"perc":12510,"##′.":15991,"##just":24134,"##elt":5657,"neurogenesis":24138,"committe":5481,"polarization":7754,"##igt":12790,"warfarin":21549,"##entricular":14517,"afforded":22253,"let":1293,"##⊗":30256,"meaningful":9473,"cosmological":22930,"immunoassay":25796,"(2.2":13753,"somatosensory":26007,"affiliation":26861,"rod":7643,"diversity":4715,"##agic":14161,"fort":11622,"metam":13291,"nested":12686,"photon":9176,"##commut":27671,"equivalently":16446,"0.69":25536,"wash":13798,"microp":20797,"##pectral":27541,"manipulation":9262,"##imp":12253,"mrsa":21410,"extracts":6904,"wide":3668,"##acker":28150,"##intensity":18776,"##ak":350,"terr":8177,"awake":28880,"interests":5875,"weapons":29897,"##engineering":20871,"1979).":28143,"##regulate":22932,"4)":6468,"stur":26809,"mic":863,"##atis":879,"systemic":5905,"##designed":26643,"lineage":12115,"drag":16176,"lesion":6253,"wes":4046,"mirnas":12054,"qualification":27749,"24,":9261,"eco":19223,"##aco":17847,"smallest":9130,"subclass":17839,"griff":19449,"##recy":27161,"##,1":6491,"phr":9313,"vitamin":6686,"##till":1939,"secret":7717,"ak":4108,"##tim":398,"richards":29836,"damp":10606,"analogous":10125,"##?”":15581,"convergent":17351,"eq":2774,"##,":30127,"nano":9183,"certificate":19484,"##ifiable":23081,"justification":19155,"supplier":16862,"exhibited":5781,"##중":30929,"##abc":19880,"##bj":14206,"presenting":9093,"electroph":6521,"##mri":17104,"##amp":1977,"rem":769,"pheromone":22068,"speci":7846,"retrieve":16138,"liposomes":17312,"labelled":13437,"##fv":15894,"0.4":3215,"glioma":17596,"##onomic":5477,"##ock":990,"har":2705,"grants":9843,"##induced":2667,"##fir":8393,"multiv":6209,"americans":15585,"0.03":9456,"cdf":26018,"(70":18975,"allowed":4254,"suspected":11417,"0.84":23162,"intentional":22561,"2008.":8893,"##idus":26163,"competencies":22972,"##spatial":25214,"ubiquitin":14770,"achieves":11616,"ranging":6223,"##olla":23471,"speculate":18032,"carr":21586,"8),":26427,"(3.5":26693,"concepts":4854,"##sided":13433,"initi":1156,"elisa":10290,"##irus":5338,"##total":12438,"unavailable":21637,"##3(":8796,"##ements":3249,"##steady":26261,"reader":7899,"(2)":2425,"dend":7419,"plei":28670,"designed":2933,"—":4123,"mscs":16869,"blotting":13065,"machines":7909,"##0.4":11137,"##ono":7194,"##amb":6750,"began":9332,"##icides":25746,"##lda":30025,"##測":31013,"##ains":1014,"rotation":5696,"ngc":22628,"2.3":4370,"antioxidants":19014,"categorical":13397,"##122":21604,"errors":3515,"include":2212,"bl":761,"rapid":2857,"2000;":6689,"##sian":4075,"insignificant":15880,"saturation":8573,"exempl":12924,"0.39":20404,"insure":22393,"measures":2554,"crises":28285,"##ocus":29250,"##eme":9156,"provenance":25539,"jia":21714,"##arean":19256,"reversed":11713,"##reich":18251,"chunk":25795,"oracle":16710,"ept":27644,"##0000":9748,"animal":3561,"pyro":17818,"conting":14273,"##geme":17095,"quiescent":24462,"##意":30932,"rodriguez":24997,"pam":16708,"##ophosphamide":23734,"##inant":2497,"overexpressed":19481,"double":3917,"##comdownloaded":22633,"-0.5":28642,"maximal":5686,"zhong":24108,"suitability":18969,"investments":15226,"214":18248,"contours":16064,"##pla":20106,"##quer":19047,"blot":6249,"substances":10076,"somatos":25617,"brief":4297,"##etti":15904,"##fx":21859,"dove":17681,"communicative":25922,"modern":5901,"meg":14472,"agonists":14977,"advised":23716,"mu":7229,"excessive":9986,"biogenesis":23515,"(26).":24678,"technically":20486,"supernat":7873,"##dem":8864,"whe":330,"islands":12904,"##(0,":10947,"##-32":19512,"cylindrical":15461,"confidence":4885,"society":3280,"contributed":6753,"audi":16890,"##⎠":30396,"fi":685,"amino":4020,"labeled":6035,"##de":799,"mitt":26233,"turkish":24723,"gest":5782,"hann":25902,"axial":9566,"accumulating":23262,"denote":3963,"Í":22107,"##chr":10616,"repe":2462,"relig":8762,"lump":20140,"##class":5717,"buses":24734,"monitors":19800,"parametri":18417,"##ature":660,"ï":26681,"amygdala":16574,"caroten":19819,"houses":21395,"14-":23642,"outlines":22055,"charg":5237,"##stranded":18241,"##ĥ":30387,"microcontroller":28311,"##ialysis":16168,"edit":22134,"9.5":17725,"susceptibility":7433,"##]":30153,"parks":27908,"aggres":29671,"##union":25845,"##tnf":18161,"extends":10615,"judgments":15275,"##onbach":21880,"transpa":8969,"##01.":12706,"fen":19234,"shift":4338,"##/).":23726,"carbohydr":10614,"##reperfusion":27856,"frames":6795,"germ":2927,"resveratrol":26779,"exported":26908,"hypoglycemia":25473,"##structured":12889,"rodrig":18918,"aberr":11080,"dependency":10271,"ri":3950,"turb":6587,"##ecting":6289,"gravity":10899,"uni":19059,"##∗∗":24945,"##1371/":8902,"moral":10992,"collim":26440,"##tn":9888,"vii":11518,"##bp":3248,"##ieren":13176,"brings":15219,"##abling":28781,"critique":24421,"constitutes":13126,"¶":17984,"ac":222,"competit":16169,"ana":6515,"[unused42]":43,"##rim":4614,"endurance":23506,"deren":23444,"##3),":3795,"oxygen":3858,"bioc":19258,"plating":26037,"mut":1373,"##inine":11198,"bh":8956,"##ert":2813,"organisation":13202,"increasingly":7484,"##ourt":29638,"rnase":16772,"##national":13887,"pathol":18198,"voxels":18672,"modularity":25165,"##axel":14244,"discipl":9407,"clarity":16585,"half":3437,"##⇠":30943,"##pler":7859,"db":4630,"disagre":16917,"##dav":18277,"##f":30122,"onc":5906,"10.4":25706,"nude":24783,"##得":30837,"##otropic":7304,"biotin":14561,"ids":17454,"intention":9720,"wa":2755,"adam":14596,"symmetrical":18737,"juvenile":14509,"##carbon":12522,"zone":5493,"la":1665,"anz":20563,"##iver":656,"perforation":21609,"increasing":1953,"##sigma":9858,"Î":28073,"helps":8978,"##accur":12646,"aerodynamic":28248,"##following":28234,"##统":30985,"photosynthetic":18397,"##ques":7390,"arr":3976,"(2010)":10072,"nous":18459,"whereas":2255,"usda":28809,"limitation":7332,"imperf":14805,"comprises":12292,"##ulph":26754,"##idelberg":16784,"jug":20564,"1.08":28998,"##issensch":23144,"##ieder":13266,"##aben":19151,"constellation":24144,"monthly":11762,"morris":18238,"portions":13505,"speedup":20870,"1997)":16959,"##issi":25995,"gem":11211,"subtree":25566,"##-64":26121,"institute":3046,"simulations":3853,"##aires":23641,"##wald":19871,"−3":19043,"##weis":18875,"##sup":3865,"ment":9329,"formation":2256,"recherche":19792,"polystyrene":28338,"inorganic":13985,"resources":2965,"bim":13915,"##低":30967,"did":1544,"##rical":7064,"##proton":24494,"turning":14101,"##̺":30544,"gk":14590,"axiom":17136,"supram":25286,"coincidence":25064,"##quin":14313,"simplification":19400,"∨":11858,"dup":13415,"boh":21344,"involves":5185,"##ne":711,"alumin":11983,"haut":23593,"contrib":1514,"##asm":8105,"fg":15162,"cohen":12656,"zwei":20874,"##icit":25161,"##oplasm":27030,"inductively":28394,"##.49":21951,"##0}":20159,"die":1321,"shock":6651,"latent":9657,"usual":7355,"implying":14466,"##urin":21904,"kcl":14879,"##abl":14046,"disk":6977,"##po":4923,"dialogue":14758,"dell":25843,"initiatives":14365,"contradict":17612,"∀":6413,"nanocompos":21572,"97,":29439,"instanti":15280,"wood":6337,"chlor":4317,"##plankton":15329,"anterior":5586,"assure":22676,"##94.":28543,"##illo":18512,"numerically":13272,"1–":9311,"chang":1044,"nasal":11037,"lim":950,"##he":108,"##し":30412,"##acrine":22673,"cc":4310,"inte":738,"toxic":6034,"##tz":6027,"mtdna":17010,"reciproc":21565,"##onald":13598,"##orption":3116,"##turn":23330,"##265":29089,"##9.9":25767,"##udge":14904,"ultrasonography":20350,"##feld":12056,"trail":16509,"plat":3943,"ria":25402,"##record":28776,"moder":10183,"wolters":29437,"oft":20471,"consequences":6091,"specialized":10533,"(.":20791,"##growing":29204,"1980":10998,"tsh":19995,"238":24884,"##mt":7495,"##ivided":20852,"aggregate":8108,"asymmetrical":28875,"mtor":14976,"(95%":7470,"##diameter":24943,"constipation":29795,"##zers":24574,"##80.":25693,"dilation":19454,"indexed":15592,"##1/":3426,"##avity":5070,"≤":1511,"collagen":6898,"##benzyl":26596,"225":16056,"##ipot":18494,"##wat":14911,"##情":31032,"1.000":27628,"stronger":7141,"##amycin":11454,"##onc":11844,"subdivision":20031,"##イ":30705,"##entry":18860,"##た":30408,"surgeries":24218,"(0.1":15288,"vanc":17486,"conson":21098,"instrument":5476,"semantics":7816,"precl":16601,"retr":15135,"cas":3964,"##ί":30805,"##olas":23519,"##❅":30900,"autologous":17428,"foot":6894,"##icul":22711,"prep":3345,"refinement":10954,"foreign":7543,"##ournal":1785,"desp":3486,"##cephal":11018,"##tene":22292,"##olym":8671,"##orubicin":17916,"##pattern":20813,"2004.":9321,"buc":15862,"preprocessing":15792,"reconstitution":27970,"specifically":3697,"bei":4024,"sre":26340,"happens":11302,"philosoph":18255,"scattering":6158,"historically":18371,"##atz":8665,"stret":8254,"lact":6779,"semester":27915,"(10)":6711,"##ッ":30768,"beads":11991,"remind":20503,"##ece":12353,"##2)2":29718,"terrain":17456,"resem":11431,"##ア":30725,"realistic":8538,"##ording":1309,"##opause":23191,"parathyroid":24247,"[unused96]":97,"##spots":26824,"##this":8321,"mind":6262,"##iques":13252,"amines":25741,"tric":14512,"lapl":14126,"##eut":16702,"##iones":15170,"memory":2411,"princeton":22302,"##mk":15913,"argentina":21501,"estimation":3261,"##16,":13498,"circle":9558,"##less":2095,"served":9334,"wafer":17950,"neovascular":26525,"145":15382,"resis":14555,"volum":6777,"frontal":9588,"##sulf":15071,"ho":4559,"##iri":18311,"##R":30378,"about":1011,"receive":5380,"hydrophilic":17840,"illum":9772,"##า":30861,"chemo":20753,"pom":15061,"##ograp":17425,"steering":17165,"23%":25342,"-0.00":23865,"4":286,"##screen":21094,"discontinuation":21710,"asperg":18869,"added":2735,"##시":30689,"[unused33]":34,"##hin":17443,"ophthalmology":22498,"divergence":10263,"mth":22462,"engineered":17213,"spong":25406,"synovial":21528,"ph":375,"##아":31056,"##illen":24057,"behavi":1207,"availability":5232,"nonzero":13946,"trivial":10737,"appropriateness":29124,"##5);":26260,"titers":18485,"undergo":7883,"##superv":14655,"dnase":21225,"duties":25677,"laid":20860,"discretion":22538,"##agawa":24415,"##ativen":23709,"catheters":24097,"isn":26247,"##elman":23448,"methylation":8163,"printed":13258,"subsc":7828,"##auer":9282,"modality":13674,"hack":23387,"##ulated":991,"xr":17106,"##":30777,"##\"":30170,"##ão":4432,"registration":9433,"aware":8875,"converse":25370,"eqs":11851,"elucid":8888,"sends":11564,"hole":9151,"superposition":19750,"spinal":6624,"##cultural":19916,"mrc":25974,"psp":23494,"supplying":26313,"1990":8632,"##ivered":8092,"anatomy":12798,"matters":15520,"mys":18524,"reconstruc":6763,"##ecraft":22798,"##temperature":15141,"##∩":30265,"−5":27946,"chip":7364,"legal":6978,"##prep":24219,"proprietary":24059,"##illar":24341,"poly":2564,"uncover":22099,"(78":29492,"65,":23500,"##tischen":20785,"77,":27081,"initial":1700,"##nc":5297,"##oelectron":22868,"controls":3151,"identify":2743,"rhetor":27558,"ler":24106,"##aw":964,"planning":4608,"caffeine":19461,"malicious":15473,"##ds":1591,"eukaryotes":25640,"##4.5":27338,"note":1920,"breed":19314,"queuing":28853,"(2.6)":27548,"stopping":16018,"sevent":13043,"americ":2585,"unobs":18871,"pma":22136,"ecm":15398,"organizing":20858,"##dos":19770,"weitere":28224,"[10]":6923,"vegetable":20288,"##aret":12762,"and":137,"phenolic":17974,"base":2971,"margins":14185,"electrostatic":13527,"##”),":23863,"nol":29701,"##S":30445,"##/10.1016/":11400,"arch":2153,"(1993).":20158,"##history":28695,"stri":4258,"##erged":26390,"##lism":15844,"sta":15934,"auf":3888,"classic":11774,"[unused91]":92,"flor":11702,"homology":11600,"riemann":17855,"[2,":9865,"conception":15015,"0.38":17966,"divid":3608,"examination":4373,"##kx":22577,"fractures":10088,"24-":11869,"construction":4094,"##osing":27476,"##bh":8879,"securities":27263,"##ice":590,"cationic":19978,"acm":7227,"##tonic":23450,"##ollen":20976,"bearing":10996,"##90.":22911,"##rex":10417,"american":3258,"consequ":2408,"13.5":29017,"quantities":8253,"beg":3126,"singularities":22116,"[30,":26850,"fifth":12008,"koch":20526,"2015).":10905,"procedural":16336,"fail":1871,"mountain":12273,"enthusi":24563,"##oviruses":29732,"choices":7938,"staphylococcus":16808,"dma":29211,"feeding":6983,"##phil":17811,"chu":18456,"##实":30919,"admit":19708,"information":776,"##ocytosis":10161,"##kines":28088,"##ectors":3422,"##ine":276,"anatom":9172,"##6):":23808,"##leaf":23892,"##amoto":13700,"##ats":3257,"thymic":27695,"spanning":13914,"∼=":15962,"[17,":17558,"emission":3653,"0.18":13253,"construct":4492,"ubiquitination":25369,"reply":20478,"nodule":23382,"cancers":7718,"##ultural":6072,"chel":15448,"skew":11203,"attenuated":11899,"stagn":28650,"(21":22893,"##perm":21445,"globular":27289,"vocab":13193,"##edent":16768,"corn":10823,"##":30729,"capsules":25954,"elimination":9598,"printing":18111,"##ierten":16503,"beat":17016,"static":5366,"##uptake":29585,"intestine":13099,"funders":26209,"creep":29468,"gir":7847,"reverse":5239,"manufactured":20748,"extinc":10943,"##ond":440,"(42)":23150,"dimin":8282,"increased":1175,"##506":25595,"hon":10374,"##overlapping":25376,"nevertheless":5398,"urethral":30087,"collision":9583,"wenig":28159,"##.19":12066,"queensland":26297,"[24],":22056,"say":4654,"associations":6225,"qubit":27840,"biology":4966,"tud":26736,"##regulated":5725,"supports":6283,"##oni":9276,"roth":17782,"##fin":10914,"sweet":19549,"##abr":22981,"entering":12897,"0.22":14918,"##loading":19432,"investors":14801,"##kyo":10528,"tryptophan":21834,"λ":1946,"##öm":20072,"45":3044,"lbp":23967,"pax":17537,"anal":438,"rectif":18288,"##1.4":12131,"locomotor":20641,"assesses":27269,"soa":20978,"##character":16315,"quantization":13840,"2007;":5806,"putative":8965,"encephal":14719,"##umab":10505,"controlling":6702,"eti":9787,"asymmet":6004,"clinically":7165,"##uter":13342,"1.2":3693,"my":1536,"##iding":6507,"retinal":8914,"alloc":6968,"sign":423,"##rote":11444,"##roma":27366,"shrimp":27277,"7.5":9347,"specialists":17601,"hydrox":8961,"flexibility":7967,"replications":29498,"##▲":30968,"spiro":28968,"clon":6975,"##rents":3700,"##น":31027,"elution":19392,"these":407,"##dma":27651,"prol":2692,"##ochond":4136,"loyal":24190,"ampa":26095,"##xa":14301,"concur":17208,"sclerosis":13980,"sparsity":21123,"##ove":1087,"0.05)":10237,"##ocar":7823,"lose":14605,"##인":30595,"0,0":22125,"##û":30340,"verify":7366,"##結":30859,"##rp":7438,"##rov":17633,"years":1320,"adop":3240,"##grant":15352,"simplifies":23560,"because":923,"interview":4489,"[41]":23347,"##hall":19501,"##rement":19599,"##hrt":13511,"##hoff":19081,"##′":30168,"stokes":22654,"##hyd":28368,"aryl":22126,"uneven":24492,"##gar":11142,"caught":24692,"##iron":1054,"neurologic":19455,"##lav":25488,"micror":19480,"dad":22186,"24":1540,"cause":2836,"##endo":18410,"allele":7145,"##orientation":24140,"ild":26747,"cis":7413,"##sections":25717,"pushed":24878,"##dimethyl":15978,"##fluor":15181,"mathematically":20161,"##活":31082,"ψ":4477,"##********":24981,"courts":15644,"arrhyth":14285,"housed":19396,"##.3":798,"submuc":27021,"##print":7734,"inside":4970,"thirty":12498,"rocks":20157,"closer":8635,"##elles":11421,"27%":25979,"##ground":2464,"##herlands":8597,"deutsch":25600,"##ubation":13967,"passive":7702,"deficiency":7411,"enabled":10378,"##excl":19935,"balances":27301,"forearm":22970,"##ideal":24173,"embolization":24535,"##ledge":1643,"##tick":25407,"forebrain":29907,"##gone":14906,"rescued":27472,"lett":6348,"sheets":15647,"1982).":23614,"mcr":27284,"##appa":15081,"adapting":19328,"##Q":30565,"[unused30]":31,"contradic":16280,"sorted":14287,"shif":5075,"bit":4626,"amphib":23485,"##tains":25557,"stop":5290,"##く":30680,"##ounting":25831,"bypass":11403,"##’),":28630,"architecture":3652,"gri":20589,"##adi":970,"ncs":21909,"##neut":16839,"##sg":15615,"portfolio":13559,"##mon":2091,"trache":13261,"activators":28723,"##2_":28004,"foster":13916,"##esi":14983,"##⎧":30462,"addition":867,"##propagation":25696,"einstein":20684,"##ark":714,"/∈":17643,"yap":23179,"mos":6214,"preserved":10904,"may":552,"##ip":335,"mitochond":4327,"subclinical":24903,"spore":25361,"normalize":22585,"waist":19515,"completely":4355,"towards":3834,"pmid":17509,"computational":3989,"−∞":17571,"(30).":27207,"mn":5060,"##uture":2047,"1978":15728,"pron":14335,"(2009).":12865,"##obarb":25904,"hypothal":13322,"ladder":24621,"##igene":11634,"subsection":13271,"2013).":8017,"##vj":20959,"1992;":10892,"bind":5198,"dominates":18019,"unprecedented":26796,"pollutants":17951,"0.72":25994,"##ustry":4469,"affili":11892,"gre":1051,"179":19873,"pushing":27309,"qpcr":18217,"southern":7663,"prev":7616,"##come":2456,"##ponent":17281,"isbn":18029,"##shift":12757,"decade":10028,"##003":16416,"211":16913,"toolkit":23576,"##months":26600,"##esium":14929,"crucial":5784,"##ize":767,"##usc":7785,"authors":1991,"##lov":19190,"merch":27218,"defence":20912,"##essive":18091,"##planes":27639,"##electrode":26874,"##eno":13205,"6.0":14831,"##щ":30608,"2017.":13984,"endoplasmic":21282,"##zy":3030,"avoids":17695,"##ε":30215,"##tors":7687,"viable":10109,"##소":30870,"##journal":6471,"strongest":14048,"mycobacterium":21427,"##dovepress":25984,"interesting":3016,"tanz":24817,"##optic":19185,"epithelial":5984,"dependence":4899,"affiliations":25223,"##lantic":14363,"##country":26664,"closely":5566,"spher":9136,"cop":1756,"obtained":1151,"##ficial":3409,"##–26":25527,"infection":2486,"##22)":27751,"60°":29964,"rogers":21554,"##kel":10141,"##over":1132,"very":1248,"qm":18641,"(21)":11382,"cargo":23836,"##37.":29576,"tyrosine":9925,"##-1-":9118,"characteristic":1655,"##pk":8123,"duplication":16422,"purch":5661,"immunocyt":23764,"leg":2983,"brit":15539,"##ulo":12772,"##在":30562,"rotavirus":28845,"speak":15392,"tor":3928,"##-":30136,"##や":30842,"correctly":7704,"##steine":10339,"calculus":15258,"mel":3341,"76.":29830,"melbourne":24993,"##unced":8612,"georg":13311,"audio":9432,"workflow":11479,"siemens":29415,"nutrients":12390,"cooperative":9189,"##usa":16907,"##‹":30821,"##rows":23521,"runs":7317,"guo":16928,"gaining":19647,"##bb":6518,"##ape":2221,"greatest":9145,"screws":26987,"ffir":17554,"seaw":16720,"interacting":10253,"##heless":11769,"fishing":20480,"##pdb":27118,"determine":2100,"equivalents":22510,"emitting":25797,"habits":15572,"altering":16906,"aeti":24073,"##actone":29452,"##ش":30466,"neighbourhood":17938,"chaotic":16034,"oreg":22566,"backup":22345,"0.82":25355,"duration":3386,"cub":7450,"homocysteine":28169,"killing":15537,"races":28468,"[6,":11920,"##oqu":19458,"##pubs":28589,"pump":7074,"wastewater":15350,"mimics":23556,"##lysis":22887,"##-100":10659,"intron":16485,"##chrom":17340,"##ite":585,"hor":3624,"determinations":20135,"manganese":23925,"defi":26188,"(1.3":22966,"plume":26315,"clearing":24328,"##:20":28265,"psf":27485,"##-55":25554,"simil":10280,"miss":4139,"assign":2655,"tlc":23204,"##izin":17132,"##perform":9266,"seism":14914,"##soil":28663,"reinforcing":28524,"microbiol":13157,"deterior":10911,"##sible":914,"##20,":12319,"entreprene":13290,"##3-1":20644,"community":2928,"wirkung":24446,"resolved":9098,"##acetyl":13187,"dark":5856,"southwest":26660,"##occl":30010,"zi":10053,"##lip":5466,"##wh":2297,"##virus":12833,"##flp":24722,"graphical":11123,"##ule":1423,"1997).":8662,"heter":2720,"cement":13877,"woman":10221,"85,":27040,"##thi":19851,"1986,":22630,"##回":30994,"2001).":6965,"##out":521,"healing":9846,"metastatic":9123,"##zf":28072,"chapters":19217,"##glichkeit":27049,"##ð":30202,"chron":11426,"bi":596,"##:23":26819,"##ctt":14946,"cris":9838,"##our":387,"##100,":20751,"loop":4472,"routines":19139,"##plete":6915,"consultants":29784,"##Θ":30289,"know":871,"rt":3483,"normative":16313,"prepared":4092,"pivotal":19202,"1-":4409,"liu":6401,"##types":10356,"neck":7980,"##∞":30214,"rival":27882,"̇":16670,"##ering":2009,"emphys":28903,"positives":17411,"comprise":15553,"crispr":29743,"names":8541,"##hol":3057,"##ク":30677,"##stry":13573,"[29,":26134,"adoption":9714,"particular":1349,"cytoplasm":11013,"visually":14047,"##び":30893,"synchronization":9240,"six":2781,"regions":2340,"blog":18957,"provided":1966,"##usive":6199,"##ota":7676,"minimal":4665,"outgoing":20663,"contrast":2144,"##h":30117,"capacity":2900,"[25]":12638,"##seven":22962,"arguing":27658,"arrivals":28624,"ascites":23566,"##大":30586,"sql":19922,"stefan":24895,"##characterized":24104,"tann":23242,"advers":11440,"51.":20533,"20":1012,"##ada":3415,"mycel":24902,"outcomes":2952,"densities":8185,"nieht":16224,"##ough":830,"3.8":14284,"##(4),":25502,"furn":17683,"fir":635,"##common":27073,"[4]":5817,"modelled":14537,"##ozy":7092,"##prior":24634,"##idium":11705,"##ersch":27609,"7(":18307,"##resid":19908,"isol":1941,"##source":12761,"spont":6113,"mirrors":25089,"##den":1982,"##fluid":15766,"ke":1059,"##part":6531,"grazing":19703,"mine":17459,"ulcer":11737,"etoh":27817,"polyphen":20956,"0.001)":12869,"remained":5584,"masked":23270,"##sters":25889,"elastic":6845,"##kers":24491,"39":4133,"pacs":29169,"##esthe":4465,"covalently":27680,"residents":9960,"[−":19709,"flame":21055,"prompted":20029,"conservation":7371,"dial":15760,"##unting":23766,"fractionation":19998,"##missions":14088,"##](":18275,"##axia":22833,"microtubules":19881,"cycles":5119,"##Г":31018,"helm":24361,"##hered":25608,"##anners":19752,"96-":17339,"##tisch":24782,"summarizes":12749,"##stat":11545,"juxt":29360,"##cn":4060,"0.81":26879,"rpmi":19179,"glucocortic":15883,"occupancy":16209,"##o":30112,"cage":16312,"##~-":26793,"comprehen":4908,"##36":2752,"##@@@@@@@@@@@@@@@@":24888,"##ogenesis":3614,"##ample":14784,"barg":16724,"##1:":4785,"enamel":23124,"una":10313,"19":371,"propulsion":27642,"waiting":11293,"##squ":8186,"situational":27171,"##essor":7162,"provision":7658,"page":3707,"interventions":5434,"2.8":12055,"lik":1009,"##icking":10708,"##ectable":16291,"glp":22425,"##advant":8992,"catalogue":28251,"##ress":882,"fundam":4350,"supplements":18468,"valves":21196,"manchester":26304,"314":25524,"##esp":24180,"##*)":15217,"##promega":21815,"capsid":26744,"iron":5302,"0.001,":20152,"spawning":26189,"philipp":23000,"[14].":9163,"##ex":762,"vet":17801,"nutrient":8799,"unambiguously":28030,"legi":13597,"ceram":26135,"##jas":28102,"##dev":16857,"ambiguous":15276,"cig":11828,"antigens":10190,"î":21275,"covering":9822,"150":5413,"##bian":28897,"##fets":28564,"##ae":1611,"##intr":19990,"generation":3014,"alkaline":12835,"both":655,"esc":6339,"pancreas":14752,"##-30":11273,"restore":16295,"##activation":7078,"sitting":20016,"notice":6013,"carri":2339,"1997.":12228,"##acy":1414,"cct":23773,"epilep":28348,"##opharmac":23793,"5.4":9745,"retrosp":17539,"lig":3391,"##erve":2634,"suspensions":17621,"proxy":11674,"aperture":13797,"enab":6537,"22:":24800,"##tum":25714,"volume":1894,"sae":29647,"hh":11477,"clip":24646,"golgi":18115,"wrong":11165,"geriatric":23289,"hosts":10912,"bioge":20787,"##figures":11372,"penalty":12623,"cf":4645,"argumentation":29408,"incontinence":22071,"antipsychotic":25678,"##)→":21241,"##ulf":2925,"4°":14208,"heavy":6501,"emphasized":13682,"0.83":24432,"harmonic":9044,"preparation":4737,"fif":7057,"##ivas":28684,"valuation":16649,"essence":18361,"administered":6115,"overlaps":23527,"##apeu":14377,"[unused78]":79,"bp":4448,"##iters":18156,"fdg":23816,"immunomod":24084,"##tf":13802,"##ig":167,"gapdh":18730,"senes":15412,"straw":21021,"##ðt":11646,"cov":21004,"stoff":28982,"letz":22532,"cxcl":19247,"pq":14295,"##ulations":1570,"testes":23871,"diameters":15698,"0.65":17700,"##=1,":15328,"cars":17857,"hydroph":7257,"diffe":26323,"harbor":14480,"##government":25302,"1995":11285,"notre":29194,"hif":13728,"terminates":24263,"lymphaden":25190,"##avan":21785,"patient":1454,"online":2997,"plasm":8425,"##omyelitis":25953,"##pt":489,"##epid":24428,"##dip":15822,"papill":17550,"##ynaptic":12418,"##via":12449,"##rophy":10297,"##metic":10371,"sit":1370,"##ocysts":25819,"temperature":1633,"##thermal":18807,"##ohist":8209,"##201":4967,"##leigh":17446,"##smo":23129,"##unov":15119,"naturally":8329,"##uan":14556,"##hog":26605,"pesticides":19006,"endorsed":29095,"##pri":2109,"##arge":1029,"tgf":8262,"##tronic":15711,"contral":14852,"##with":3683,"start":3901,"##onas":28202,"categorization":18383,"##tzmann":20391,"465":29533,"earthqu":15879,"(2017)":21130,"##fish":12188,"hazard":9283,"tem":956,"##dominated":24995,"##dimensional":3434,"brand":10597,"2012;":6762,"problem":1167,"freund":28771,"coverage":5300,"outbreaks":19435,"antiv":13865,"accompl":8065,"##ethnic":28372,"##zr":25939,"dilemma":23066,"##erer":19722,"trans":428,"##formed":8250,"purs":9030,"##aring":3290,"lights":22333,"##continuous":21578,"stell":23014,"fq":20365,"##ze":1948,"subst":2657,"implemented":3812,"##mu":11544,"##4.8":19866,"2006).":6215,"manag":1460,"##/20":21680,"recombinant":7206,"##long":12097,"∣":4315,"##region":18098,"anode":20252,"adduc":17243,"##stic":20177,"ignor":28152,"hermitian":26945,"transm":13875,"##riched":9323,"##port":488,"##ult":793,"bang":14092,"small":952,"##gic":16521,"inv":593,"##ogon":25067,"genotypes":8918,"bottlen":14749,"approximating":22651,"Ö":15007,"virgin":14589,"322":25858,"screened":12216,"keyboard":26166,"##":30717,"##sequence":19856,"jahre":22156,"pfs":20297,"##roc":10940,"##osphere":12527,"lost":6677,"##respond":1117,"##41":5688,"##ori":5668,"##s":30113,"##aes":28598,"##ẏ":30642,"##利":30986,"(38":26375,"neumann":20180,"sharp":8925,"cardinality":18463,"enlargement":20691,"dcs":12612,"##-9":5268,"##icks":15942,"2010,":8125,"linguistic":9096,"##П":30688,"links":5331,"amsterdam":17086,"##xx":7003,"litig":23656,"##bek":29705,"←":10296,"diastolic":13411,"ans":8802,"app":806,"yb":20845,"taxonomy":16432,"nb":10516,"##ance":336,"vestibular":22010,"hod":14963,"##istry":2943,"entrance":20671,"genes":1770,"magnets":27974,"resin":12687,"##fw":29572,"compaction":27473,"vene":22376,"##derived":6505,"authorization":24761,"##rosis":5139,"obligation":26671,"glomeruli":29329,"ā":22294,"dates":15272,"much":1839,"binocular":28229,"##apping":2847,"ought":24366,"trough":21854,"##rip":9952,"pedig":27509,"##各":31035,"##oprotein":7264,"myeloid":14604,"dre":14124,"19:":22971,"js":11773,"##4),":4783,"nci":27847,"suscepti":5173,"##연":30720,"##aff":2776,"neb":29473,"227":24531,"known":1721,"born":9856,"##orer":13091,"improving":6017,"cash":13405,"ud":8722,"phil":5567,"##ord":490,"##opathy":7086,"##bens":16100,"iteration":6796,"8%":16021,"##stock":17958,"##ero":2063,"##arum":14540,"##achs":25961,"cerebrovascular":23080,"application":1836,"confusion":14153,"prolifer":29597,"innerv":28188,"##.4%)":17663,"immunotherapy":20688,"adaptive":4640,"##33":2898,"510":25801,"computed":3639,"rij":24202,"##sd":4876,"##cohen":29285,"##ucci":21546,"gulf":22124,"check":3247,"##⊔":30670,"chloroplast":23329,"##ethanol":18237,"functionally":13281,"##normalized":28138,"142":19845,"##lam":11139,"csa":19231,"micelles":21448,"33":3307,"##overed":4988,"consecutive":7315,"##forms":5620,".01":15575,"##ially":2094,"supporting":5182,"##133":18959,"nied":25835,"(0":5184,"##pos":451,"regularity":17605,"##select":18736,"alle":3566,"##asen":23538,"##02":6726,"nose":18745,"##0.01":8352,").":4799,"##sson":13063,"##4-":4455,"##0.00":3951,"abc":14564,"dav":5384,"##으":30585,"##iled":16009,"attracted":15762,"nationally":28358,"sg":10410,"ar":400,"##sor":13810,"transmission":2856,"boundaries":7445,"pathway":3430,"home":3417,"53.":22200,"effect":907,"impulse":13198,"drum":27709,"##rectional":11159,"distributions":4620,"neighborhoods":21374,"##vereign":28069,"shed":11814,"seiner":25645,"##ode":1019,"##economic":8206,"ende":18246,"##gens":8318,"predictors":8758,"spreading":12980,"internal":2924,"remote":6654,"ultrastructural":27740,"dec":559,"biodiversity":15818,"untreated":9245,"inc":306,"11,":6599,"ttp":18210,"hepatocellular":17880,"##â":30290,"boston":12264,"op":561,"##.);":25153,"nid":28516,"chief":16494,"##ibus":28567,"##oper":2097,"##porter":6848,"equatorial":25897,"##fung":15295,"dens":11849,"alkaloids":28715,"nuclei":7756,"antibiotic":8963,"contraction":9994,"any":843,"fals":22381,"cite":11085,"##ailand":18218,"called":2722,"##allic":24631,"conjunc":16139,"firing":11369,"##cep":1620,"organized":7174,"##í":30238,"teeth":11318,"credited":22249,"220":13550,"physician":8314,"before":1548,"##rv":16757,"fuller":28559,"seam":19413,"infusions":26594,"enrich":9318,"##102":18259,"1.5":3902,"##acian":20415,"62.":25983,"summarize":12754,"asp":2287,"##tek":25832,"##ald":14232,"proteins":1878,"##rocyte":13538,"transposition":27530,"##fdg":26823,"##-11":10376,"cdna":7237,"##)/(":26830,"kinematics":18488,"##)!":24183,"[unused15]":16,"ic":1981,"25.":9024,"##flow":4872,"initio":29440,"strata":25184,"hek":16698,"parser":23078,"david":9279,"##3.":1210,"traditionally":12959,"##ulent":11021,"2013,":9526,"smoot":19619,"possessing":24266,"##tigen":18598,"ankle":15407,"sho":13723,"##ensch":12907,"strange":27765,"##itting":18868,"##akers":8928,"elderly":7731,"diagnoses":12797,"epistemic":26050,"##주":31055,"fric":23708,"coal":9949,"habitat":9355,"design":899,"tes":9005,"colony":10078,"fri":5438,"drill":26789,"distances":6630,"##tivo":26402,"various":1711,"1984).":20931,"buying":26237,"inclination":23661,"fog":22044,"##iax":26786,"∞.":18601,"⎢":11662,"colloid":26858,"##see":1848,"enormous":18458,"wearable":26300,"##iw":24787,"##≡":30276,"transparency":15975,"begun":19007,"##mcs":23606,"##ille":6341,"##ticism":24370,"1640":27742,"##uba":20837,"##plicit":3242,"movements":6873,"##pseud":27464,"##ilation":12282,"##agg":4028,"offered":8232,"59-":25774,"summer":9400,"decentral":14732,"##acies":14069,"harvesting":16609,"incubating":27729,"##ommen":12955,"perturbation":10007,"##10.":2367,"predominance":26680,"##ía":11707,"0.47":24707,"480":20853,"##kon":15856,"##경":30795,"##eptidase":29183,"sd":3654,"##glycerol":23358,"##ubin":16195,"subsets":8479,"##ctgg":29553,"##gaard":21502,"antiviral":15579,"26%":26467,"##ensable":19879,"problematic":12704,"instruments":7252,"##acellular":3734,"(22).":22445,"##mitted":3237,"290":20203,"convers":11361,"works":4603,"demonstrated":2275,"##able":318,"inquiry":18206,"9.2":21507,"##who":14538,"accompan":6881,"disagree":20781,"empathy":23819,"acyclic":24209,"Ξ":20519,"assembled":14469,"bub":10227,"indicators":7037,"##teenth":26208,"##11/":16151,"che":2051,"perfor":12496,"##onomy":8323,"height":4583,"##ʼ":31077,"biophysical":23287,"ey":5790,"##ylated":8471,"heal":28236,"thorough":9763,"apoptosis":4406,"##간":30774,"mannheim":29511,"4(":10994,"mismatch":12732,"curves":4483,"##osion":11398,"##전":30764,"preferences":7637,"triangular":14067,"##ifferentiated":23741,"nerves":15220,"powered":17507,"observed":1058,"eagle":23187,"seoul":19229,"tactile":20839,"inhibitors":5241,"timed":18134,"prés":26794,"monocytogenes":26998,"opioid":15221,"##ны":23276,"##abd":22783,"retrospectively":18818,"demanded":29337,"##해":30818,"brachy":27479,"anion":15049,"##3.7":19358,"compose":26829,"##力":30860,"pth":16988,"##sir":21017,"cll":25059,"ax":2189,"flooding":20639,"tms":19119,"##aser":17449,"ribosome":21929,"−→":10096,"cylind":12159,"beverages":28651,"sheath":18036,"galactic":22051,"##3)":1276,"##dmso":25397,"licensed":15677,"transport":3152,"analyze":5230,"laf":28878,"##theore":13435,"425":26491,"##ymetrix":29914,"##irubin":19162,"akt":10462,"##bard":25095,"deux":26454,"##ĩ":30631,"##atial":17170,"variations":4688,"bold":13242,"0.89":22984,"tachy":16188,"logical":8294,"quenc":22360,"##valence":24901,"johnson":9724,"reality":8522,"butter":18024,"illustrates":7677,"botan":27471,"bern":10056,"bedeut":19519,"##Š":30616,"##idin":9269,"##itz":5428,"bal":2679,"answers":10291,"pcm":23851,"jul":13182,"470":28084,"newly":7737,"##ionic":11591,"vocal":14130,"##–60":19611,"outward":21115,"thems":5652,"mst":24257,"##2.3":29826,"noninvasive":18693,"thaw":23565,"empowerment":25295,"##agas":28933,"twe":15737,"www":3036,"##osc":26624,"sinus":8121,"chim":11275,"pregnancy":5564,"##ô":30324,"##xs":13084,"##gap":13053,"cyclase":25120,"##ØØ":17365,"bach":25896,"diminishing":28940,"##extr":14007,"##etic":5550,"unequal":22176,"vb":18356,"functionalities":19188,"pursued":23017,"extracting":14552,"4:":8204,"(31)":16412,"nmr":5744,"radion":28448,"cathe":7313,"deliveries":29491,"coales":21363,"##7,":1238,"##-2),":29049,"ltp":23749,"##thym":27838,"##ells":19437,"patches":10713,"##seal":27109,"##된":30946,"neuropath":11343,"##inoid":26286,"rever":6049,"parox":28981,"##anges":13107,"pyramidal":18223,"wir":7464,"gesture":17033,"1.":667,"mil":3466,"(18":12664,"mh":10483,"layered":18157,"##arged":10319,"##ji":5818,"complete":2467,"##mas":11585,"##req":28220,"rises":19086,"diaphr":19372,"candidate":5286,"silence":29369,"##iga":18620,"##compati":26631,"island":8760,"lts":30031,"knew":22043,"involving":5005,"inconsistency":21903,"##nature":13590,"claud":28957,"trib":12439,"##apse":6273,"##stimulating":27302,"lactose":27580,"##hot":15531,"researcher":12551,"visitors":23092,"##vision":11079,"exhibiting":15465,"##":31064,"bush":26384,"##conc":18180,"observers":14054,"gpa":21040,"##itating":17642,"##254":28587,"crowds":27579,"176":20191,"expertise":11731,"tread":24383,"radiotherapy":11168,"degrade":18952,"##–8":10609,"hygiene":17535,"unmodified":28975,"expected":2182,"##bos":20077,"##ḃ":30896,"luc":7280,"aldosterone":25323,"##ona":8892,"##ış":24314,"turing":25331,"##bullet":25290,"dip":6332,"moduli":19983,"lines":2469,"confounding":14978,"longe":21096,"acquisitions":26695,"(6)":5101,"meningitis":22029,"leukocytes":17650,"fgf":13736,"##zol":20100,"##itaxel":18460,"solved":7240,"merge":15354,"##ati":229,"radiologists":28519,"##ret":1957,"rele":1504,"##cence":2963,"lid":12512,"appropriate":2826,"spermatozoa":23900,"##onation":26089,"##30,":15929,"homeostatic":29441,"##(4):":15324,"ascending":17639,"gyr":12215,"##rial":2610,"converge":12504,"investigation":4534,"##ings":854,"##welling":28736,"mounting":23456,"grateful":13010,"(99":29277,"indist":17176,"decrease":2640,"##oln":24310,"immunol":11189,"decades":8148,"defic":7250,"kept":6890,"appearance":6540,"emt":20101,"##ch":255,"##taining":5979,"##orphic":21617,"lesser":12513,"##std":29156,"sizes":5155,"frail":26370,"##hester":14881,"polyps":25490,"##boundary":29814,"[27],":24891,"fos":14979,"porph":20721,"forward":4200,"109":11677,"##3−":24671,"fibroblasts":10266,"##obarbital":26004,"pictures":13041,"##Y":30673,"##nett":14688,"##gas":12119,"bios":4768,"##ask":8537,"pituitary":15034,"payments":16603,"##.38":16828,"receives":10255,"mortg":29488,"alien":26351,"jahr":28825,"greenhouse":17403,"dall":23636,"##wort":28948,"optimization":3378,"constitute":10334,"barbara":25826,"##iman":22061,"summ":2075,"feb":13094,"develop":651,"rk":10224,"qc":17835,"##cta":29850,"2014;":7915,"##ogenes":14707,"##alian":4893,"attit":6056,"##1),":3365,"each":535,"##methyl":7085,"card":1787,"annotated":13783,"##/10.10":12616,"##dro":1546,"traumatic":14220,"jew":16183,"##11-":24179,"##成":30622,"rat":1282,"radicals":13930,"rectang":9467,"##filling":29949,"##operation":7277,"diagn":1563,"widespread":9671,"∆(":22649,"##(·)":17261,"spr":8274,"##pid":19114,"##linking":15153,"epit":3721,"##joy":13111,"0.85":19235,"csf":11519,"##2.0":10757,"compliance":8580,"hoped":29677,"revisited":29349,"olig":5408,"dressing":27492,"discretized":25130,"##:3":9436,"##..........":16497,"leishman":19878,"offshore":24308,"chen":4809,"kgaa":22286,"##/.":16339,"nanotubes":18764,"∼":4167,"cadmium":20511,"##ilent":17674,"infrastructures":24700,"nord":16206,"αβ":26771,"##.34":15816,"##rontal":14224,"1976":29073,"nh":6604,"##rect":897,"##otyped":19475,"##otransfer":19706,"##ims":15827,"micron":17752,"subsequ":2586,"##加":30792,"apart":8394,"gbm":24441,"thous":10640,"ersche":24599,"splic":9248,"##upt":21382,"##heses":6513,"contrasting":21274,"aggrav":24738,"144":15527,"diodes":23260,"eph":23815,"cpp":28556,"##tives":5377,"##°.":25708,"##helix":21961,"##tia":10728,"baum":24607,"touch":11506,"corporations":26444,"destruc":10819,"##ishnan":26271,"##oge":14441,"##icated":8368,"rectangles":27438,"##jap":22604,"mere":9681,"atypical":14615,"##rofloxacin":26459,"##material":29947,"northern":7926,"contralateral":15143,"##professional":29363,"unauthor":18385,"aeros":11733,"##7.":1274,"geometrical":15019,"diagnose":16743,"rules":3493,"writing":7219,"environmentally":24794,"theory":1983,"judged":16258,"pressure":2241,"alignments":19521,"##ters":1436,"integrating":10083,"dit":25709,"##ara":4522,"administrators":23298,"ft":7690,"present":709,"aerial":19253,"proliferation":4498,"##benzene":28034,"micros":7096,"residue":7772,"overl":4201,"ge":1240,"sets":2713,"[18":24479,"##≪":30514,"1988.":20179,"niche":17433,"instrum":13409,"provinces":22793,"announced":25964,"disaster":17068,"##ζ":30259,"expanded":8990,"##2/3":23807,"checklist":22919,"##processing":9232,"##10":866,"<<":28093,"container":15819,"favour":12206,"eye":4947,"##uscripts":23875,"lemmas":19463,"##enen":11298,"##:10.10":11408,"microscopy":5820,"superficial":14550,"##lsbad":24004,"##proc":24197,"fibrils":24172,"annealed":27202,"##aline":28669,"provisions":21795,"##otyp":2822,"males":5165,"##_0":29133,"throw":20805,"scs":23919,"arterios":28926,"wurden":11883,"amph":11659,"vm":10815,"dmf":25652,"liter":2142,"utilities":19620,"##-4-":14326,"appropri":2566,"reuse":12099,"homogeneous":7483,"overe":6297,"##線":30999,"##gene":8643,"##crow":29788,"##''":19115,"connecting":11360,"wallace":27950,"vorg":25084,"shopping":21475,"##price":23631,"logistics":18556,"##sto":21708,"##1⁄4":4791,"##tifs":12343,"users":2485,"single":1232,"vehicle":4818,"key":1519,"##145":20823,"##added":26518,"##,0":18415,"##administration":23754,"glands":14711,"med":605,"bif":10332,"enable":6437,"##sb":16219,"aerospace":25702,"iterative":8872,"unfortunately":8192,"##ng":5733,"##millipore":29863,"wasser":24842,"dors":7244,"##amine":3344,"##fibr":23699,"terminus":19305,"##gest":12354,"dean":24773,"value":973,"helix":14217,"zwar":26062,"odds":9719,"preventive":13250,"xed":20211,"pil":6535,"(3.2":14971,"##report":12169,"pand":16465,"##ias":9998,"cytok":4719,"[unused81]":82,"unfolding":21210,"internalization":20324,"##iba":21173,"##throughput":18614,"glycogen":18260,"##keley":16893,"ptsd":15974,"missed":15096,"##thy":20373,"[unused0]":1,"|=":15300,"##monitor":22494,"6.6":19606,"80%":9039,"ovaries":23692,"##vant":2155,"interest":1291,"##ロ":30762,"##들":31014,"##lu":716,"locomotion":20104,"277":26115,"monomeric":24861,"options":6612,"streptomycin":20562,"differentiated":9923,"homogenous":20819,"##wang":13117,"stern":18033,"deprived":29088,"##-04":22272,"##ofol":25374,"specimens":5977,"departure":19541,"##ktop":20863,"157":18319,"arguably":24854,"##reness":7456,"##/2.":19864,"inves":1289,"##∣":30218,"gpcr":27706,"manuf":4007,"∣∣":7680,"agitation":25572,"gpr":21509,"detoxification":28106,"brook":23868,"cdk":15697,"gener":569,"recurrences":26781,"430":25754,"Ú":27190,"ranks":18949,"democracy":19513,"soma":29424,"cellular":3431,"neutrophil":14381,"##ari":392,"labour":10814,"##glut":9495,"serotype":24281,"são":15084,"(46)":25475,"door":17552,"cdc":11863,"##inary":2127,"battery":9025,"oven":20911,"##centered":16983,"sea":6615,"429":24781,"peroxide":15593,"populated":24326,"[unused90]":91,"analogs":20073,"##3⁄4":26359,"##osyl":15149,"##atten":22771,"distal":7577,"insulin":4084,"##(\"":27661,"##ently":966,"##incial":22364,"##gate":17703,"quantification":8267,"##bers":1674,"planar":10011,"dedicated":10385,"controllable":22086,"##isition":5054,"describes":5223,"sil":2622,"[unused60]":61,"limitations":4761,"yc":18942,"##terior":3022,"(199":1779,"skeleton":16084,"microbiota":17697,"defect":7465,"diets":12314,"##ferences":2920,"##’’,":25612,"##ita":6351,"prize":29153,"##osoma":27998,"##vem":5599,"slightly":4237,"overnight":8660,"##east":27321,"cytoplasmic":9809,"galaxies":10793,"##tom":22759,"##ponents":29246,"imaged":17736,"penetrate":24923,"modal":15064,"##aux":10647,"cyclic":8783,"##iesis":22058,"keratin":14953,"interfaces":7129,"##xe":23394,"dismutase":25037,"five":2539,"maz":24650,"history":2999,"##uti":16349,"embo":23279,"echo":12048,"ssc":17306,"##aram":22353,"ron":22019,"##urrent":6078,"eug":20315,"##cal":3538,"##trivial":12606,"##aemia":18434,"vital":9612,"prosthetic":23297,"18.":9934,"nickel":18318,"grad":3461,"##3:":6951,"pretreatment":11787,"trachea":29489,"##ones":2446,"aqu":7824,"##rost":18930,"others":2968,"100,":10724,"konn":16370,"##*(":21831,"scat":4285,"##ellites":17872,"delivery":4277,"##exual":28751,"##iotics":8051,"##19.":19626,"haplotypes":17746,"ranges":7226,"healthcare":6463,"##ى":30692,"iw":16736,"agriculture":9879,"deconvolution":29056,"reproduced":16160,"##dx":4884,"coating":9754,"elic":7659,"concomitant":11122,"##ahajournals":19004,"thrombo":15385,"sensi":1889,"densit":22957,"##compass":12278,"they":698,"bat":4199,"##seeking":24753,"##≥":30211,"curc":19191,"veget":5973,"rie":28026,"circuits":7514,"closeness":29724,"scientific":4184,"##-29":15526,"##diff":16213,"154":18772,"beams":13640,"attr":4839,"##author":22355,"##peti":23686,"coalition":15514,"scaff":9622,"eosinophils":24094,"decomposition":5720,"garcia":19349,"clauses":16997,"##cct":18705,"##bing":18044,"alexander":18511,"mü":13177,"sustain":4590,"transactions":7285,"tear":22942,"##obenz":17699,"mcm":13949,"stere":7260,"oct":6595,"##con":944,"##direction":20894,"adenocarcinoma":14091,"25°":27898,"##continued":24521,"recalling":29330,"##tagged":16467,"##900":24626,"anne":7487,"shr":8062,"da":2762,"asia":10705,"assuming":5851,"##chell":17874,"##hen":688,"[unused36]":37,"anyone":20394,"complemented":24546,"disulfide":19746,"targeted":6499,"bronchial":19440,"aster":16070,"upon":2869,"##ivan":18623,"auff":27094,"##area":15707,"plos":6716,"decre":1229,"##weisen":24614,"directed":6742,"##キ":31000,"##asis":3353,"codon":13348,"1980.":27759,"mat":740,"ends":8952,"##face":1085,"##/(":10751,"gtp":14026,"pem":19855,"##olysis":10443,"anomal":8819,"cardinal":13911,"exponentially":13326,"##ن":30345,"familiarity":21631,"о":21035,"cut":3133,"##'-":12588,"200":369,"opposition":20857,"derives":22192,"entit":7279,"##ales":3326,"domains":4371,"##adiol":14212,"##的":30346,"].":15452,"(1989)":18439,"insulator":29940,"ile":11449,"seller":21393,"decoupling":23696,"##assem":11823,"msc":14426,"[unused27]":28,"redistrib":21314,"##ations":288,"reserved":5201,"##ught":6843,"missing":6252,"centroid":19447,"##othermal":26398,"##ames":7935,"essential":3633,"predicate":13185,"cps":18964,"##oplast":20752,"braz":7258,"solid":3967,"interested":7301,"functions":1832,"priori":11368,"wavelets":26039,"queen":14698,"env":22097,"##ce":176,"99%":21161,"formulations":12121,"##<0.05":25540,"selectively":12531,"challeng":3588,"##etry":6803,"##ovir":23415,"(8.":26906,"condensation":17568,"##put":852,"hepat":6188,"##sl":5845,"supervision":14631,"##-36":16469,"##uj":14802,"hung":13779,"43":4734,"schema":11624,"ipsilateral":19230,"##∥":30249,"propagated":19824,"##gib":19529,"phy":10796,"consistency":7176,"latest":13905,"recycling":17045,"##ustr":1662,"heating":8458,"prescribed":10891,"photod":22528,"tas":1553,"electron":3081,"##public":7005,"##without":16144,"toluene":20035,"spacecraft":23780,"certainly":10157,"observe":4991,"##ldl":17145,"octa":26376,"(1998)":11287,"##princ":21102,"perovsk":27654,"##며":31012,"##mac":10518,"schol":10193,"converges":12176,"phospholip":12276,"##ver":207,"waven":27020,"pers":1257,"96,":28281,"biologists":25545,"autosomal":19833,"woody":28728,"randomized":5460,"barr":30094,"249":26752,"correlations":5637,"transitions":6939,"##sar":22851,"spaces":6768,"patents":19573,"biosynthetic":23292,"180":8967,"investor":22917,"adiponectin":19760,"albicans":21135,"linkages":20612,"ciphertext":29231,"bari":26621,"##osteric":26356,"cultured":6088,"##ergic":5777,"[38].":19763,"##rologic":25339,"displaying":17362,"yd":24731,"##tructure":6094,"tone":11191,"unpublished":13438,"repressed":27537,"hypoth":10775,"##′1":23983,"superconduc":17255,"physicians":7188,"moon":22867,"dag":15990,"reduced":1797,"##✷":30992,"alert":18082,"##ubs":16776,"incubation":5946,"##報":30937,"juice":20899,"male":3398,"even":1390,"##acher":19894,"1998),":19346,"2].":20555,"stud":344,"pbm":16236,"abscess":17565,"coronary":5503,"##placement":26262,"##cellular":11498,"kal":9645,"voc":9426,"batteries":19157,"83,":28726,"observables":25202,"##.1%)":21352,"neurotransmit":17711,"borne":27018,"##cast":5258,"##ello":14999,"151":21398,"1⁄2":12275,"beginning":5570,"),":4354,"api":13419,"infiltrate":28051,"cult":3319,"##þ":30229,"##ared":731,"rel":448,"decoded":26172,"##ource":19859,"##dia":19589,"disadvant":9220,"finite":3427,"declar":11364,"ark":28044,"##oving":25960,"fronti":11075,"films":7423,"ot":5381,"##let":2384,"assertions":23610,"surrounded":17771,"meiosis":29326,"krist":28423,"somewhat":7488,"108":11008,"punc":11459,"tiny":22351,"##(1),":12307,"sep":9892,"##uals":26094,"circadian":15213,"##doc":9997,"tac":8927,"##정":30667,"motility":12957,"##azo":22227,"fracture":7368,"##entre":27453,"##az":1507,"##検":30813,"cardiopulmonary":23998,"##ield":1707,"[11].":8450,"##iximab":28310,"sers":27767,"##50)":28315,"datas":3474,"gpi":29817,"occup":4529,"##ang":446,"african":7608,"##)(":3382,"indexing":15675,"9/":29384,"##uche":17781,"##ensen":12059,"##kle":9664,"knowing":13845,"kappa":19685,"split":5218,"##etween":463,"uf":21259,"ldl":10915,"regurgitation":26717,"developer":18927,"equilibration":28876,"##rotein":11633,"@":5435,"##6.0":12507,"atf":27347,"##cultured":29377,"oil":4981,"tonic":24027,"scot":16133,"expensive":9217,"##omethane":25561,"280":14714,"##fos":20646,"##小":30848,"##mias":20017,"clo":25091,"needle":10929,"describe":3401,"taxes":18342,"##uchen":25860,"tow":10755,"organizations":6938,"##tung":28273,"fre":937,"hub":10242,"coping":13298,"##close":16178,"membran":26935,"##prec":11708,"##-13":10129,"posture":17810,"##osomal":7490,"emergency":7410,"optim":1191,"##onses":2513,"##coord":23342,"abbreviations":11121,"synapse":20332,"bcr":18097,"off":1874,"having":2773,"edin":21778,"##acing":4508,"##-8":4059,"resuscitation":20194,"characterizes":20989,"##software":22918,"repetitions":24101,"260":16701,"midline":19523,"business":3948,"enorm":16476,"1997,":12112,"(2.3)":24025,"fs":8523,"111":13093,"##ign":310,"##heiten":27373,"iu":11763,"therapeutic":4616,"2.3.":12780,"##ieht":21753,"##nl":7727,"##det":7223,"##itzer":25868,"##ocene":16974,"##9.7":28113,"rnas":14036,"sequential":7251,"##night":7692,"::":12046,"##ki":3896,"insufficiency":19538,"##elihood":5047,"gnrh":24152,"##sr":6653,"classi":15670,"##tension":19798,"##emble":8145,"cbf":24157,"##code":13347,"pathogens":9756,"refractive":14479,"immunode":15613,"2005).":6290,"stories":16538,"publish":7697,"co":304,"lakes":15068,"communications":6580,"angiography":13894,"biosciences":15874,"antagonists":14511,"##ourse":9071,"⎥":10840,"spars":14774,"の":25510,"wä":26202,"tiss":1561,"[48]":29619,"##given":25123,"plans":8757,"##bsa":21827,"visualize":16276,"‘‘":4309,"##ization":640,"multilayer":22311,"unf":11490,"temporally":20336,"arc":6797,"##itos":13519,"[unused43]":44,"[6].":7409,"%).":23649,"servers":9796,"##drich":10423,"remarkably":13688,"quadrant":21337,"##sah":22534,"##eb":11441,"residential":15006,"membranes":6345,"##nov":16600,"##ersed":16468,"orth":3816,"nc":4996,"##urban":20316,"considered":1574,"heterodimer":30054,"plus":4344,"quadric":26522,"pyr":6204,"“":745,"endometriosis":24730,"favor":6466,"##page":7084,"reasonable":6278,"dysp":17983,"ctc":25012,"doi":2624,"##-2-":9053,"dept":17602,"hemat":6187,"traffic":4181,"##works":20510,"kon":7034,"2.5":3959,"##9.":1472,"rats":3086,"##ound":500,"g":159,"unknow":26694,"##pv":9331,"restoring":26014,"psychotic":25390,"util":2045,"serological":24529,"##hood":4402,"[36].":18682,"bild":16324,"utilisation":27823,"##neurons":20616,"##oping":26100,"mutated":14814,"admissible":18366,"ischa":19201,"##atoms":26457,"stripe":28766,"##5.6":20924,"promotion":11185,"renormalization":28283,"settled":27165,"assem":4383,"##asted":22817,"202":24660,"##root":21300,"spl":3675,"responsiveness":14020,"cbs":24904,"##aches":2267,"##gated":18548,"##expression":12487,"evidence":1775,"negotiation":16173,"doe":28622,"scaveng":18514,"signific":644,"austin":21769,"aggregated":13858,"##Ó":30301,"tar":11288,"##haut":24986,"turk":18821,"ciliary":29993,"endocr":8536,"##arial":16754,"##null":17559,"carbon":3473,"39,":16886,"##Е":31025,"church":17252,"hiv":3690,"6000":25648,"reactions":4649,"##zerland":11665,"9%":20136,"sen":1311,"Ò":16762,"##hu":7201,"versus":3304,"##000,":19755,"annotations":15522,"sas":11324,"cathode":19112,"##mica":29921,"##aments":11874,"liberal":16470,"##opoiesis":27483,"49.":17963,"poisson":10848,"xp":13307,"replen":29373,"abet":29570,"susceptible":9486,"##124":20945,"diminished":12949,"##aver":11396,"##working":28024,"momenta":29453,"serve":6308,"famous":21416,"ning":24809,"laparoscopic":13130,"(13":11725,"##decre":24125,"##j":30144,"802":13194,"##pressive":7130,"genetically":13086,"##és":6840,"##rate":10801,"organic":4756,"fall":3913,"##tre":2563,"bars":8343,"dwar":19569,"based":791,"wind":2778,"mountains":24211,"navigation":10005,"cellul":23679,"2012)":17147,"chance":9014,"ole":14198,"collaborators":30016,"11.":5222,"25":1552,"##caa":19387,"substit":3986,"##epi":24937,"##isti":8997,"##.....":17273,"##sel":13613,"psychology":7517,"##dg":13465,"islets":21218,"##gil":27937,"respectively":1222,"bureauc":28464,"##8/":13119,"specificity":5565,"0.008":28493,"##K":30534,"gram":8431,"lö":28127,"distinguishes":23837,"advocated":24931,"##zahl":29188,"der":812,"subpopulation":24985,"presentation":5542,"##1-":2635,"276":28206,"(2),":12036,"(1987).":27511,"nor":2247,"##feren":340,"hammer":29237,"only":617,"rapamycin":20881,"visualized":11590,"##computer":16255,"adenosine":14584,"##rag":24675,"nhl":29654,"adequ":5052,"0.05),":21651,"A":25780,"anatomical":10951,"ampicillin":26728,"antibacterial":16816,"required":1761,"##abel":25349,"dissol":21022,"##ة":30547,"neutropenia":27255,"exhibits":9160,"intras":27152,"##kinje":29062,"smoothly":24091,"deut":9076,"triplet":19397,"yield":2210,"##inations":4488,"è":23724,"nucleotide":7948,"untersuchung":25951,"bilayer":18476,"##onazole":26706,"##stone":12490,"##emerg":29001,"##usal":18104,"2014),":22902,"gos":21837,"tend":3297,"disconnected":24954,"##imin":2845,"statistic":11475,"vitamins":25269,"trigem":28200,"control":602,"##äts":26072,"yong":28027,"contributors":19642,"119":14919,"##inates":19352,"columbia":15307,"##":30707,"##stream":4318,"jans":29283,"beats":22263,"hemorrh":10106,"##発":30770,"##articular":25841,"##orig":19904,"francis":11134,"##train":29399,"composite":6622,"minority":12681,"##0.3":11915,"dece":26648,"##tl":6687,"pd":2841,"9.8":29193,"##amples":22985,"fdr":27005,"##att":4576,"dan":10431,"inevitable":22336,"oval":22473,"##resse":29426,"##ments":608,"k":231,"tm":5178,"oxide":6678,"firef":28346,"underlined":29580,"flex":3789,"transpl":13459,"rooted":19758,"socket":29682,"cmos":14672,"spez":26804,"guid":3128,"1982;":19840,"##lity":11225,"nodes":2207,"joints":12503,"pup":9133,"##cca":19280,"embryogenesis":25927,"delayed":7461,"cxcr":18191,"##ior":1672,"uns":6327,"epithel":19433,"researc":3992,"cpg":15341,"excised":18611,"confirmed":3804,"##atic":757,"##harm":16199,"retros":7175,"snap":12094,"##应":30920,"suggests":3082,"ange":10389,"##ato":5483,"gonad":15725,"##try":4272,"its":633,"hob":20983,"transcription":3148,"##idic":27944,"magnet":10618,"obscure":28091,"gestational":14595,"(1995)":12936,"pb":5955,"##encer":20071,"surroundings":27375,"oxyt":25695,"95%":4137,"##iration":13531,"numeric":22718,"publisher":14115,"##arette":15920,"##ayama":20425,"drivers":12034,"committees":23073,"talk":12662,"queries":7042,"surg":3356,"##constr":28712,"stacked":23478,"##gradi":27252,"##user":10092,"same":855,"##iso":14309,"gro":419,"##is":129,"##opyran":23732,"uncertainty":4952,"melan":6300,"foram":24112,"268":28462,"≺":23832,"##igration":23976,"vein":8829,"yr":10580,"##3–":3478,"universität":26326,"cochlear":24201,"##beck":16005,"differentiate":11041,"##beta":12186,"ally":20393,"revis":18203,"##tan":16161,"interle":9452,"##207":24378,"##lection":12076,"##tra":7220,"##10]":21793,"##stein":5162,"##computing":28495,"##†":30255,"2004,":8793,"overlapped":22331,"taip":26634,"egf":16809,"##rater":28279,"##matical":20094,"bron":26485,"cooperate":23352,"manifolds":19962,"appetite":24429,"case":820,"suppression":7342,"responsible":4312,"##hern":6358,"##yam":29327,"ppar":15470,"kong":12182,"1989.":18362,"deleted":14781,"##dri":6685,"subscri":16999,"inadequate":12205,"daw":18580,"ste":2038,"(300":20026,"Ó":15466,"toolbox":23907,"##面":30812,"attempted":11386,"governance":12367,"294":29689,"reflecting":11316,"##cripts":20085,"##aining":958,"modification":5945,"possibilities":10008,"homes":16378,"facilitated":14385,"##motion":26943,"india":6666,"oligodend":21998,"##ق":30541,"microstructure":19712,"criminal":14757,"##-3.":24387,"losses":6914,"forens":16373,"affinity":6839,"18:":20542,"##178":27497,"hide":23284,"fairly":10542,"pred":916,"##owicz":29102,"individually":10350,"xk":10704,"privacy":8208,"fft":18392,"8).":13301,"##iser":12799,"##ocard":4273,"ond":29164,"##8–":7298,"azim":16867,"##:8":14871,"initiator":27986,"##tera":24969,"##plates":12465,"##例":30650,"disch":5406,"##jima":29598,"sensitization":19826,"ss":3712,"orthopedic":27984,"##jim":24941,");":16709,"queu":24622,"##cb":10594,"##inflamm":6652,"blut":15426,"##isse":13285,"evapor":15503,"aaa":18381,"asymptotic":9449,"multimedia":11236,"##phyl":10656,"##bay":23924,"anchored":28243,"##č":30336,"parasite":11873,"economists":28974,"##fic":1202,"residuals":15759,"##ogether":15846,"disabilities":16633,"##uments":3311,"##ġ":30981,"afford":10543,"##,[":17820,"nesting":26183,"239":25474,"communicated":23074,"homologous":12839,"dig":2314,"##astro":27061,"thiol":19959,"newer":20674,"nicotine":14006,"##su":11525,"increments":19321,"Ð":19160,"ours":13529,"cultivars":17019,"profit":9047,"##about":13047,"differentially":11366,"##∇":30254,"##opa":21884,"[30":8778,"##...":3627,"##ional":8237,"val":491,"##sch":3505,"##act":353,"##bott":14016,"covalent":20851,"sensation":19383,"##aine":6581,"wired":27259,"##algae":28838,"##−,":20207,"##thing":10184,"##.47":20765,"##entity":29735,"[unused51]":52,"##caemia":26702,"[":260,"##rington":26124,"##⎦":30374,"inhibit":2911,"absorbing":23962,"stenosis":12247,"months":2499,"##opre":23640,"hes":13791,"##balance":12561,"##ć":30356,"glia":27500,"##ularly":25343,"rear":22423,"license":6748,"##prom":13386,"stro":4512,"0(":17361,"buff":2966,"posted":21807,"##osus":27300,"gum":21562,"##3]":3642,"network":934,"Ω":4287,"##cod":25359,"##xed":25231,"verbal":10774,"finding":3621,"##contact":24186,"(0.5":13650,"hcv":10117,"##lower":15469,"##?":30181,"##ograph":1306,"comply":22796,"extensive":5532,"##53-":24015,"oxygenation":23633,"##lı":26584,"##2-2":29528,"influences":7794,"hearts":16354,"1981":26934,"##verbal":22470,"##188":27129,"egypt":21946,"contract":6610,"0.3":4921,"##⎩":30463,"##___":29336,"##ways":2082,"cisplatin":14120,"pdb":28856,"chern":24453,"##nez":22795,"crown":18823,"##av":630,"##(1+":23095,"##keletal":6925,"batch":11098,"interpreted":7247,"bsa":13574,"##prov":16807,"##cad":12296,"##rome":3123,"##6],":9376,"complicated":7414,"unrelated":12647,"##atured":25203,"planet":19622,"seventh":22008,"tech":14134,"pervasive":20374,"rech":14182,"fbs":16283,"##prol":17953,"rising":13563,"##iliar":7759,"255":21497,"stack":7063,"##..............":17913,"pso":17685,"(2003)":9874,"22,":9197,"##omerase":16326,"##tiles":16804,"phone":7949,"##trial":24355,"recalc":26347,"frag":3168,"»":13434,"##spec":2344,"¢":14523,"##learning":12348,"polarity":14513,"##for":1817,"whereby":13941,"myocytes":21143,"##tiques":25821,"gain":3571,"##1=":17580,"##iqr":22644,"simulation":2257,"dif":352,"integrates":20500,"envelop":9327,"##regular":8993,"trimester":21742,"##1.9":18504,"bins":16835,"(2005)":9501,"sampling":3597,"##Ì":30423,"hypertrophic":26636,"melt":17789,"mend":19928,"disp":5441,"automaton":18065,"bald":23462,"##0);":23029,"##8-":9079,"hox":19180,"sector":5672,"honest":21313,"##frontiersin":16840,"##venues":17371,"coefficient":3698,"##ipped":7324,"phonetic":27444,"##but":6122,"anionic":27359,"upd":3320,"confron":17666,"thromb":6398,"algal":22853,"interact":5049,"##truc":4671,"8.":3275,"criter":2353,"rash":22679,"seiz":8817,"##ium":888,"strateg":1634,"reveal":2303,"3.0":9621,"monotonic":15982,"pediatrics":15861,"exist":1730,"sof":18016,"compl":5255,"strings":13408,"carlo":10910,"prp":20112,"peaks":6318,"checkpoint":18891,"##pul":15668,"psychosocial":14951,"resusc":18466,"fundamentals":25934,"zj":23344,"amyloid":12249,"countries":3198,"251":29331,"##È":30425,"##vv":24440,"##rystals":23786,"##inis":18848,"irrig":27388,"##charge":18653,"##용":30745,"horm":4943,"##gm":9443,"dureh":19445,"fertil":9585,"##odes":1555,"oxim":29998,"colombia":29234,"aure":11108,"##uccessful":20530,"##43":5016,"installation":16493,"##ulating":3529,"##mented":18122,"hydraul":15941,"predominant":6933,"##du":7668,"wc":13533,"cylinders":26762,"heat":3837,"plantar":27855,"mk":9847,"practitioners":11337,"##alling":8866,"potentiation":25251,"##-40":16552,"##ugin":13981,"loyalty":28153,"ahead":15471,"lipof":27330,"outer":6674,"##uck":5385,"scarc":24054,"##.9,":28460,"keeping":9573,"##jr":25492,"##ude":1523,"myocardial":6903,"##enteric":19716,"##iotic":5655,"##encil":25547,"chapman":25129,"33,":15747,"p":118,"##gels":19656,"Æ":16022,"##holders":10019,".":205,"##bc":4774,"scoring":10805,"reproducing":29127,"kb":7923,"missions":25192,"product":2378,"##onectin":13125,"##nedy":21713,"indicate":2645,"##rom":236,"##3/2":24042,"##–45":28978,"##状":30885,"marshall":22261,"ftir":17859,"©200":23665,"trabec":20246,"##ysiological":11112,"ergebn":17048,"ingestion":18189,"confirmation":14468,"##...........":18222,"##avour":28907,"ultraviolet":19244,"msa":29160,"egfp":21724,"epist":14154,"##box":6119,"##(11):":29043,"remark":4292,"skewed":21790,"secretion":6562,"(49)":27451,"pipel":27756,"##～":30983,"(32).":29045,"einz":29719,"lect":13077,"##zt":8096,"##force":6189,"##ily":1079,"relates":13385,"reserv":8341,"2016.":14393,"ure":7196,"coin":23425,"intercourse":29361,"phosphorylation":5267,"##----------------":13488,"##matching":23620,"##width":4364,"subscales":20834,"seek":10453,"##://":1637,"##ibly":16593,"expose":22761,"##enzyme":18462,"million":6248,"insomnia":27110,"myeloma":20150,"##(":30134,"5.5":9802,"scheduling":6393,"##él":24111,"resistant":7569,"planetary":25494,"stimulus":5701,"cores":10502,"##siti":29450,"Ø":11898,"eyel":26471,"pant":22678,"##toren":26812,"translates":20970,"transducers":25574,"nonsignificant":28554,".0":3179,"##etermined":17225,"##endocrine":20636,"parasiti":26652,"november":6145,"neurology":13645,"assumes":10337,"minorities":29539,"##agt":14846,"##book":7950,"unequ":16459,"##aven":6827,"##tg":7750,"redundant":12338,"##(2):":11686,"##ester":6575,"peptid":27462,"dise":1035,"wurde":9803,"provisioning":26582,"regarded":8718,"communication":2498,"synthe":3637,"surveillance":8569,"##can":5617,"osteoblast":26287,"##sek":24518,"##/2,":17085,"algae":17894,"##opoietic":12670,"##igm":25333,"##plas":3062,"##ael":8599,"opinions":12992,"martinez":25958,"lr":8295,"[26,":23530,"thresholds":9706,"60":2242,"conical":27954,"##soc":26413,"phosphatidyl":18239,"wax":21434,"##coun":5646,"##tor":2112,"ks":9000,"##care":5023,"interventional":22939,"##cein":16287,"minor":5118,"##pleted":21999,"linkage":9993,"pulp":18671,"classifications":18939,"##bss":28749,"muller":24488,"##non":7033,"##entary":21772,"##uate":6106,"##----":4404,"secure":8446,"##uchi":10009,"##opter":13331,"heading":21954,"##tib":17501,"[unused17]":18,"в":17603,"##−)":20331,"‘":1384,"##omething":8788,"##":30721,"fragment":4836,"##-39":18725,"bureau":18600,"##ors":386,"ventil":18571,"##adium":18150,"forth":13256,"huge":11812,"obes":4735,"incub":2894,"measurement":2560,"400":5629,"geological":20204,"##ocal":4368,"##shel":29401,"cohe":7986,"imprac":26758,"##itrate":25451,"capillaries":23737,"bpa":26606,"tetrahedron":25758,"(54":28753,"ionized":29348,"interaction":2019,"centrif":6320,"asks":23201,"llo":21822,"##otroph":20038,"pancreatitis":19108,"##-20":9401,"junior":25106,"suit":12239,"restriction":6764,"waters":9299,"##6-":5775,"##istent":17656,"wick":29978,"##ried":10621,"chloroform":18378,"1))":25970,"29":2583,"vulnerability":12680,"##angen":28292,"##isation":3502,"extracted":4271,"peculiar":22737,"##uer":12875,"##network":13927,"pahs":27063,"attended":17402,"compute":4677,"piec":6483,"spectra":4179,"storm":15318,"##cou":10977,"67,":26743,"41":5220,"field":1281,"sentence":8517,"©":2703,"##acid":16377,"##0.6":14261,"solutions":2727,"pow":1109,"translate":15655,"pct":26679,"vip":26629,"shap":5826,"digestion":11766,"wis":19973,"prod":16799,"phon":9102,"leiden":29181,"somm":29660,"referral":15410,"sustainability":13591,"hsi":26719,"organised":26604,"il":1902,"##vehic":25110,"caf":21306,"##0:":17217,"##cgi":19534,"cus":18166,"1976;":28280,"inferences":17715,"2010).":6556,"##ticity":28078,"infusion":7880,"##idi":7140,"interacts":13020,"homomorphism":21293,"designer":16337,"polygon":19317,"lund":18798,"indoor":13734,"son":6205,"##di":2231,"specificities":29034,"exud":24208,"##aints":13137,"bleeding":8401,"erroneous":22048,"##dele":23666,"highlights":11878,"##여":30719,"##11)":21511,"##ikawa":20186,"chromatographic":20817,"blo":11269,"safety":4104,"activations":26190,"##____":3863,"alt":9070,"simul":22091,"bel":1208,"transmitters":26142,"dilution":9470,"contingent":24344,"reputation":16443,"##5-":6230,"hydrol":25383,"basis":2525,"epi":21235,"##inge":10674,"ecu":29519,"##gpp":29584,"gq":28512,"##vari":3175,"relationship":1654,"##ofluorescence":12898,"##base":11059,"reconfig":14277,"52.":21526,"##cock":29026,"injection":4209,"##idespread":9624,"distinguished":10672,"strongly":3974,"interface":3396,"stimulating":14559,"##-99":27673,"##afen":22518,"##annon":17506,"nish":20657,"##urus":20708,"##ends":4017,"intellig":5378,"##parametric":12931,"iiber":27394,"##nom":25429,"##plicating":21747,"coff":15604,"tachycardia":22160,"diffr":8792,"wl":16071,"nit":8868,"articulated":27561,"##spe":12358,"##ynes":30003,"glu":11557,"##平":30835,"6.1":11219,"perspec":9551,"##paramet":10308,"##org":1508,"##7.7":23381,"##bits":11510,"##patible":18766,"sellers":27316,"packed":17780,"##:,":29315,"brid":11772,"radius":5931,"takahashi":24774,"fingerprints":28662,"unidentified":27163,"andm":29674,"materials":2518,"oxy":24427,"##tof":16392,"emerging":7602,"tb":6226,"tre":634,"[39].":20289,"62":7139,"defined":1565,"##ジ":31044,"sgn":27556,"##olin":11032,"##eur":9287,"choi":17744,"pelvis":24293,"##bility":1875,"[31]":16111,"##active":2299,"##bod":28175,"##eric":1802,"dab":7657,"##rw":30063,"ode":24045,"glasses":24068,"##ifen":16347,"##ercul":8322,"##基":30684,"poin":828,"prote":4187,"##imeter":13042,"nac":11996,"##directional":24795,"##growth":13829,"anxious":28328,"outsourcing":26218,"cessation":15848,"hydrothermal":29973,"##),(":20115,"markedly":10098,"##aged":3202,"cytogenetic":26385,"positions":4815,"bad":7614,"##arak":28653,"sowohl":28874,"descriptions":9956,"##⎥":30304,"sorting":12167,"##ag":210,"haplotype":16147,"3.5":5738,"invoke":27025,"acous":6949,"##vall":27046,"##san":17011,"marginally":20429,"##پ":30718,"preserves":18779,"##tak":21717,"##anderson":29075,"neutron":14049,"##\",":9179,"singer":29137,"##ти":27048,"##squares":20943,"##rq":29944,"leuc":13396,"##ails":10691,"governing":16383,"centr":1932,"illustrative":24178,"insuff":7807,"jin":15815,"##.5%":8028,"##plane":9428,"usable":23467,"exception":6694,"facil":3080,"3].":24826,"thymocytes":29048,"##dehy":7239,"residency":28518,"attenuation":10537,"##cipl":10388,"##cience":17759,"##cepts":4625,"ori":17368,"nach":5284,"##±0.":10351,"":30106,"students":2584,"##ص":30629,"tangible":27318,"204":22143,"proteinuria":23437,"cleav":7358,"intel":8848,"figs":8856,"shuff":28099,"hierarchical":7540,"informal":13217,"##sets":14221,"##ogn":1354,"hors":13485,"proposals":15643,"semic":20904,"##(|":15767,"##cessively":18568,"hatching":29815,"##omp":20485,"[unused2]":3,"vowel":19989,"caco":24250,"##yi":8960,"∅.":25641,"beste":18041,"hess":28187,"##edic":14899,"##back":2686,"##Σ":30247,"kot":25480,"##ingen":14076,"##puted":21295,"senti":15357,"0.73":25615,"hct":19482,"mund":26079,"##synuclein":29162,"wer":4956,"av":873,"citizens":13014,"(2002)":10407,"rab":5345,"mosquito":14873,"oi":15617,"##ained":1348,"##vehicle":26847,"##asi":6146,"places":9251,"constituent":16367,"(5-":25132,"episodes":10761,"##inner":29041,"##lass":16440,"##dot":18602,"##":30838,"sullivan":27922,"(≥":25737,"cataly":6476,"##supported":21974,"##selective":15650,"sacr":12675,"21%":24757,"reconstructions":21566,"##wa":4074,"·+":29469,"downregulation":16518,"##bered":14789,"##itt":6151,"##kj":15259,"ems":19785,"##jective":12163,"286":27687,"é":6150,"wors":13711,"supra":10299,"##3.3":28124,"##sted":22506,"gd":10544,"kluwer":21977,"[19,":18388,"##ũ":30417,"profession":4506,"##tilis":19219,"##rd":5401,"aneur":11084,"silicon":8605,"401":25224,"scc":18732,"##wd":22072,"neonatal":10001,"##xt":1145,"##abor":3314,"interacted":26523,"eine":4188,"recorded":3568,"##olved":3958,"##-1":661,"questionnaire":5692,"##pective":4018,"relative":1930,"##plant":4101,"##223":29881,"155":15723,"localize":22818,"immediate":6959,"infest":24445,"orthodontic":26870,"regress":20389,"##estab":14570,"grades":15118,"##actin":8912,"##下":30663,"##odium":28325,"acted":22572,"##inguish":17432,"genet":12550,"reticulum":17846,"vertebr":10747,"litterm":27529,"inclusions":20971,"surgery":2797,"##/1.":22713,"assimilation":18940,"mite":29370,"late":4410,"##ccc":21280,"##oce":23502,"pdf":11815,"standards":5103,"dnt":27490,"char":813,"##otarget":22779,"extrinsic":18569,"return":3988,"##ocyte":4702,"[7,":12506,"equal":2652,"##gebr":4069,"statement":6098,"str":411,"crest":18624,"biochim":28167,"harvest":10719,"failed":6616,"143":17087,"goat":13923,"prl":22824,"##部":30687,"##123":18751,"noted":3742,"##hyper":11228,"excited":10982,"##lus":20661,"richardson":23211,"phot":2020,"theories":7275,"colored":16201,"thalamus":22278,"vend":14515,"shanghai":14939,"alteration":12804,"##endent":1160,"erk":10456,"neighbouring":23109,"0.1,":21881,"segment":3197,"neurosurgery":24754,"data":453,"haptic":23007,"routes":11567,"glycer":23302,"pars":19417,"51,":19276,"swedish":15179,"corporate":11500,"vl":8496,"hsv":17005,"##tely":4217,"wire":10414,"rain":7112,"ford":23715,"march":5234,"##cale":10061,"[unused58]":59,"contraceptive":23161,"[7":3091,"exp":841,"src":16936,"placenta":18923,"##otactic":29353,"impair":5392,"⎡":14681,"m":127,"aspergillus":22146,"##max":3655,"assumed":3852,"driver":9776,"child":1326,"##brand":18673,"analytes":22791,"##uo":19672,"inser":4357,"report":2024,"##nac":20830,"coulomb":20253,"pathophysiology":16583,"[unused13]":14,"entanglement":23931,"##wert":18826,"pub":1043,"##omorphism":8923,"piv":12901,"spare":29794,"protocol":2929,"dimerization":25722,"##95":2855,"##transfer":9419,"msp":26463,"behind":7723,"##due":16318,"requires":2978,"##qiagen":19249,"lia":23447,"breakdown":12236,"disaggreg":29522,"dystrophy":29208,"##":30864,"##vial":7185,"overcome":7505,"gef":15325,"homepage":18628,"undert":9667,"##グ":31003,"commentary":26129,"becker":23350,"##worm":18360,"##enn":6044,"vag":7988,"authorship":28966,"nonparametric":18694,"sbp":19604,"reject":14190,"4000":17954,"##adays":16651,"remodeling":12491,"astrocy":25673,"##atility":29916,"##.39":18234,"##blast":12995,"##gew":22547,"##tify":24514,"duodenal":25872,"==":15052,"harvested":10482,"seman":3785,"hd":6792,"aust":10653,"neon":7544,"##〈":30236,"1993)":22712,"##gef":15713,"prohibited":16687,"##48":3495,"coexist":17260,"##ophage":9971,"##cient":11521,"##yled":29288,"##printing":24519,"##na":648,"##dl":3547,"rnai":18286,"##anner":9534,"##ehen":24322,"municipal":20383,"##ospec":23777,"##9%":6738,"243":26328,"incubator":24016,"##perfusion":12458,"##intensive":20175,"##turing":11260,"interpolation":10413,"easily":3717,"cattle":12365,"[18],":17662,"[unused8]":9,"##005":16346,"##ina":1869,"##sheet":18931,"##mol":7103,"##oli":7780,"kx":20395,"great":2815,"leaves":5927,"##jor":1594,"receptors":4161,"##oric":21911,"highest":3435,"panic":28249,"fasc":13947,"##tica":10933,"clad":23501,"hal":2547,"##‚":30543,"zell":23800,"achieve":3120,"##birth":19214,"##rock":18943,"interruption":22904,"tex":2335,"perfusion":10045,"[13],":14750,"##series":18557,"mosqu":14380,"relying":17760,"preservation":12773,"##血":30754,"##vii":13663,"##olean":11638,"##coll":16697,"famil":4802,"study":527,"ago":10430,"([":9052,"informative":14180,"##011":22955,"optimize":10215,"##mers":25048,"##/4.":18724,"lagged":26802,"##enhagen":24582,"deposit":18427,"counselling":27650,"##choline":14921,"##ostatic":14657,"##cells":11857,"roads":18582,"##law":12745,"disturbed":20678,"boost":12574,"##ophil":4971,"yh":28887,"##.50":14849,"##知":31079,"##ament":4972,"adiposity":27629,"originate":18503,"pharmacological":10559,"serious":6083,"##wered":14253,"retard":16716,"robots":10222,"##oste":23946,"aerosol":13979,"##ushed":25009,"heights":18215,"##orectal":9513,"informational":24323,"divide":12380,"tot":9708,"logics":22801,"participatory":24873,"sagittal":19026,"##implement":27370,"6.8":19593,"dynam":1589,"receipt":23753,"quantified":8596,"illumina":25164,"obs":695,"ovary":17903,"instructional":20862,"intubation":21178,"disposal":19714,"nothing":11392,"biochemical":7235,"deposited":10507,"##otation":24135,"##다":30495,"detachment":21355,"##cluster":18663,"##aryl":23776,"##lb":15776,"biomarkers":10234,"mead":27155,"##95%":23698,"iec":26709,"alleviate":19893,"nah":16246,"monotonicity":25523,"exploited":13294,"grip":21360,"usp":25171,"entste":26966,"(5.2":27615,"##タ":30716,"thinking":9483,"##zone":21711,"##anne":16586,"##echanical":13101,"##ail":517,"fda":16427,"exclude":11602,"##iew":1752,"collins":20732,"##Ë":30427,"##cd":2447,"tuning":10288,"sugg":984,"inhibitor":4773,"instabilities":28386,"africa":7611,"catchment":24984,"embod":20638,"actual":3799,"shaking":22274,"98":7871,"android":20460,"##2*":20081,"##23,":16604,"instructors":28760,"plex":16109,"##gebra":4668,"##tp":6065,"classifier":8039,"saying":20458,"pharm":2877,"##Ð":30312,"kä":29483,"optically":23027,"##ven":823,"##reflex":25074,"(2001)":10178,"vorlie":26841,"##−=":23028,"glutamate":10952,"##74":3752,"devi":3333,"##ating":560,"ptp":29911,"ecos":8061,"##mesh":28388,"##enes":15349,"displayed":5983,"2017;":15048,"airways":22729,"##hn":4804,"ish":15952,"genetic":2576,"##anced":2046,"catalyst":8432,"supersymmetry":29763,"amputation":29296,"tracheal":23537,"lengths":8546,"npc":21863,"inferring":30045,"string":6298,"tubercul":9043,"production":1865,"##panel":27594,"[8":3205,"##versal":10181,"##9–":3811,"locus":8047,"1);":28830,"project":2575,"##.]":24278,"stretched":26946,"dias":21529,"##struct":17751,"##wg":27142,"0.004":23672,"##⊑":30969,"##nh":8924,"##land":1881,"flasks":26110,"restaur":23429,".05":25243,"##ensed":25627,"##unc":472,"suc":1639,"3.9":16393,"##け":30778,"principles":6293,"(2000)":10573,"978-1":13016,"subgroup":5909,"platelets":13578,"##€":30349,"##arsal":27901,"allergens":29549,"##link":5196,"bottles":27617,"mediators":13958,"percutaneous":15664,"tu":6355,"horizons":28195,"##69":5576,"##})":14248,"##z":30143,"radical":6382,"magnesium":15785,"##galy":23859,"##ferent":17877,"zk":19103,"##uta":22815,"##模":30822,"##loxacin":16903,"##anian":28226,"53,":20886,"ultras":5083,"hepatocyte":24977,"eins":20596,"specified":5723,"##aplan":14278,"##-05":19657,"mitig":9343,"styl":12641,"##=\"":15854,"21:":23978,"##iod":1182,"trips":25260,"##ovi":20437,"##0;":2745,"amine":18605,"potato":16480,"explains":11175,"##th":266,"##jb":20279,"markov":8916,"nationwide":25448,"immigrant":25211,"endpoint":14420,"##math":18146,"urban":5156,"bak":14576,"rows":10392,"dispersed":15046,"##uration":2615,"abi":19963,"tia":27605,"wf":18190,"##aland":13957,"multiple":1624,"hsa":22945,"trad":2673,"##urnal":21166,"##224":29035,"inducing":11732,"decid":18267,"multidrug":24715,"connections":7122,"negoti":9961,"meh":18009,"sie":5487,"mirna":11666,"caffe":17264,"multicenter":19378,"sin":859,"##roll":14001,"occurred":4118,"##school":19720,"sixty":20151,"editors":13866,"##onym":7131,"december":5854,"##athan":16028,"turns":9980,"##tig":1118,"eigenvalue":12583,"lam":5572,"##occup":20861,"fev":20431,"##43,":27565,"timestamp":27250,"##25":1678,"superc":24562,"7.6":20176,"acceptable":7786,"neuroblastoma":27014,"attend":11296,"gill":13831,"##func":8197,"duplex":17948,"hysterectomy":28395,"##therapy":22727,"##found":21071,"##306":27317,"##roz":27570,"]":1901,"liqu":4042,"rbcs":28780,"##stained":16939,"##是":30671,"##arch":1392,"2009":4758,"inhibited":6514,"pj":9444,"##lund":22036,"climbing":29475,"(2).":12139,"socially":17205,"##lys":15716,"undoubtedly":24078,"##.2":598,"entropy":7477,"##ù":30453,"##icz":13781,"machine":3997,"##ermost":25669,"histogram":11261,"challenge":4949,"##sions":18240,"##–9":13928,"##수":30587,"##oline":9936,"##ullivan":23272,"[51].":29857,"##sn":7211,"appliances":26133,"##vb":25477,"compar":1138,"gpu":15251,"##nk":8090,"##̨":30568,"##determ":12855,"edema":12987,"negotiations":27966,"simult":3984,"attach":18595,"##kii":21699,"prok":22726,"##uity":7627,"[18,":18167,"##there":15630,"exchanging":28710,"spp":10698,"##pace":17610,"##dil":23887,"continuum":11494,"nloaded":7101,"##=8":30062,"rhiz":15326,"##three":14410,"mog":25593,"5%":5919,"229":24665,"+/-":8613,"##.;":1353,"##cag":26704,"undet":17265,"outflow":16505,"##atite":21304,"för":29136,"(~":12485,"rfid":16934,"##ubes":14028,"##法":30576,"##check":17100,"therapie":21603,"exceeding":17467,"screen":2938,"ssa":26425,"slides":11653,"##amethasone":17762,"exper":607,"contaminated":14593,"Π":9019,"aneurys":11267,"##cat":5581,"tobacco":9882,"##since":18853,"tape":14090,"standard":1235,"mesench":13562,"speech":4777,"##house":8901,"gastro":5987,"##cri":1418,"metaphor":21206,"biotechn":17562,"hypothesized":9445,"configured":19779,"##14,":12849,"47":4574,"[unused93]":94,"nelson":17816,"protr":16830,"stakeholders":12620,"##rousal":17668,"##liquid":22365,"##.3)":7105,"para":6495,"menopause":27376,"elec":875,"##acycline":19939,"commonly":4531,"##permissions":23944,"##unately":7284,"##21]":27278,"abrog":23702,"##oren":21585,"synchron":4911,"bist":26494,"vow":14775,"himself":17146,"(1.1)":19852,"schneider":20292,"0.25":8171,"##245":28504,"emphas":6363,"##–1":5878,"introduced":3376,"##-3-3":28759,"##wash":23265,"autonomic":16035,"##renz":16390,"##dm":4116,"psnr":24501,"##oop":22859,"poor":3228,"methionine":21838,"professor":7789,"dissociated":25516,"dbs":26043,"triplicate":15866,"gw":14636,"##astolic":11972,"robertson":26054,"##oconstr":21110,"architectural":14600,"cond":6598,"##zip":23247,"##ṁ":30665,"##abeth":24666,"wh":252,"persu":20985,"accent":22456,"pps":28937,"intellect":11555,"##higher":27398,"##æ":30405,"proximal":8014,"##ro":136,"kj":10900,"##dep":5079,"inositol":29272,"44%":28836,"cold":6663,"##⎡":30377,"##................":1063,"exposure":2718,"##context":25971,"##nings":10990,"initiation":7384,"##장":30907,"##-95":25354,"##tische":19820,"macroph":5512,"recursive":12272,"historic":26614,"tutor":18109,"favorable":10480,"##opress":23769,"syllables":28870,"triples":26377,"##aldehyde":11423,"##leg":11245,"##jing":22496,"(16":13305,"unic":20399,"sharing":6404,"2.0":6144,"thank":4562,"kang":18290,"##图":30868,"spike":11826,"myot":27835,"##azin":28498,"92":8698,"##asure":16198,"abstract":4940,"ingredient":24351,"##ying":1918,"climate":6002,"virginia":18432,"thromboem":22138,"##⊃":30564,"##aint":9020,"##opr":26538,"235":21899,"##isters":13032,"fer":3188,"frameworks":13772,"igf":9396,"##ran":11031,"##ults":3330,"euc":27894,"##ving":1130,"##∞)":15966,"trat":23503,"##izz":19060,"struct":1609,"wird":7889,"0.01).":16415,"goldstein":30015,"##vely":642,"oscillations":10827,"##evaluation":25519,"embedd":4444,"box":4602,"anaesthesia":18280,"cac":12814,"expressions":6370,"rhythm":13081,"natri":28103,"arp":29831,"splits":23209,"choose":4910,"##thal":5641,"precipitated":20385,"##entric":4138,"win":8168,"therapeutics":18604,"##zation":4803,"##ospheric":20594,"excellent":6722,"explan":4571,"ting":27079,"##ser":4447,"##acyl":18420,"ignoring":21326,"laryng":24467,"1024":24439,"##prop":9823,"salience":28701,"shortage":24115,"##obs":9246,"##constrained":16795,"void":16179,"erm":17278,"upright":27553,"##72.":30006,"dominance":13071,"dysphagia":29385,"prolonged":8320,"##.01":9296,"conditional":7071,"(16).":19580,"encoded":9195,"345":23328,"acknowledgment":13013,"viii":15830,"##asome":14520,"sicher":27641,"aval":27858,"rock":8863,"biol":4589,"##meter":27304,"##pecially":2721,"o":116,"microspheres":23391,"##ections":2481,"##maximum":20088,"resistor":24477,"##ß":30272,"ascribed":22169,"giv":789,"anions":22407,"##∗,":10777,"gag":17032,"ethiopia":25822,"##+-":15142,"##olipid":24217,"flip":16067,"##druck":29554,"adopts":21379,"##meth":4493,"hydroxyl":14998,"∂2":21731,"##ifers":26677,"corrected":8849,"##orus":27296,"##acetic":16290,"satellite":8895,"##set":2843,"(1990).":24400,"##32":3428,"really":9695,"scientist":20734,"1985":19799,"export":11484,"grammar":13436,"##.14":10111,"initialized":21288,"1998)":16686,"stays":21229,"fossa":29626,"cook":16266,"fluctuation":15688,"outlook":26234,"dul":19744,"##asts":4579,"80,":21862,"(50)":25865,"repulsive":28955,"get":2744,"kub":24843,"gluc":2972,"##ervation":4731,"##weg":14654,"α":1474,"random":1533,"##fre":15550,"mab":11757,"feature":2602,"unreliable":22923,"0.60":18859,"##ather":5838,"louis":10540,"mum":24498,"̊":14417,"via":2168,"##tices":3136,"immune":3890,"evol":6780,"[unused68]":69,"programmes":13557,"##angle":11804,"energe":14726,"##.......":18374,"##것":31062,"surfactants":27303,"colleges":28579,"eros":29212,"euler":15042,"track":3231,"##iii":4171,"concentration":1840,"uncommon":17109,"populations":3521,"##document":23736,"thorax":25207,"375":22863,"##broad":27732,"facebook":20418,"##vere":2405,"smad":17404,"intrad":24980,"analogously":26019,"buffered":18052,"contaminant":28848,"physi":2891,"reve":2041,"fuels":21532,"proceed":3934,"lecture":12061,"smoothing":13583,"metastases":10878,"##agent":12554,"blur":14838,"(1997).":16285,"functional":2131,"##tte":28067,"##ij":2283,"##entricity":28477,"capacitance":11940,"bare":13057,"strengths":11756,"att":1080,"##ritis":6631,"photovoltaic":24302,"malformations":23843,"##bu":8077,"necessity":13678,"containers":21132,"+(":25785,"gst":12541,"(15),":26995,"##nahme":17488,"carrying":9360,"relied":19154,"##":30894,"##litazone":29046,"##weak":19710,"hed":12679,"volunte":9564,"has":434,"automatically":6906,"##engers":24242,"digits":20709,"##35,":21589,"rodr":16164,"327":24391,"sans":25580,"##necess":12528,"dock":13589,"host":3757,"redund":8076,"##supplement":7848,"##linearity":23104,"⎤":13541,"thirteen":26173,"##bal":4141,"##ented":27377,"head":2795,"aerosols":26639,"confid":14695,"sole":7352,"##amo":25219,"journey":27886,"##qu":206,"bup":22756,"##store":29887,"cet":18013,"color":3375,"begin":3973,"clarke":24541,"rpe":22014,"##1":30130,"supplementation":11363,"##recogn":18822,"disapp":29007,"mcf":13737,"##inoc":22562,"r":182,"##–20":12648,"concerned":8111,"mono":12020,"##nick":20349,"##urn":1782,"behandlung":22862,"##marked":24526,"##yx":26595,"optic":12746,"gata":21449,"enhanced":4006,"cats":15662,"##othelial":26354,"##kinase":17503,"##chel":25642,"nicot":11200,"[unused85]":86,"exclusively":10333,"uncontrolled":20317,"conver":1806,"endoscop":8695,"eg":6040,"##gan":1002,"murphy":20799,"prolactin":25508,"diab":2809,"##receptor":16998,"(2.3":19307,"never":3449,"##enza":8555,"##1.7":16696,"lymphocyte":14913,"##sds":24588,"dots":13670,"holes":12126,"tmax":27938,"500":4507,"##resource":28112,"##otr":8395,"##ologist":9590,"interp":2140,"##ados":9278,"(2.0":28977,"crimes":30095,"##aml":27888,"##特":30810,"salinity":15367,"##dif":9507,"presentations":15986,"clinicians":10838,"##п":30334,"171":23155,"obstetrics":22976,"documents":6353,"##poses":4985,"47.":17059,"discarded":15045,"eigenvalues":10274,"sputum":22080,"removed":4290,"ketamine":23126,"##inence":22995,"##xn":7762,"pyruvate":19572,"bands":6360,"##igenous":15320,"##assen":13757,"##/6":10223,"sym":1236,"ea":4932,")(":5924,"divers":4135,"##tised":27261,"(7)":5607,"jumps":21967,"plc":19259,"##ave":1524,"psychologists":27292,"##え":30758,"diff":2504,"granular":12752,"##acranial":14650,"choice":3327,"converter":9208,"visualizing":29691,"none":4580,"inspiration":26273,"lynch":28467,"##91":6731,"##rient":2897,"dr":741,"electromy":29658,"neonates":18717,"growth":1503,"biopsies":13581,"rh":3645,"etiology":14177,"phospho":17579,"scenes":16612,"holistic":20640,"##-08":26646,"##60,":23982,"10)":15702,"unexpl":20352,"lancet":15868,"##loid":8130,"##ariate":5462,"mediterranean":17093,"introducing":9344,"[unused28]":29,"##–4":6315,"1995;":8801,"mesh":6532,"chips":16671,"Φ":5648,"##0).":2441,"with":190,"tim":445,"fetus":19919,"katz":24230,"##peritoneal":29015,"##ov":807,"cys":10040,"##cre":7613,"##utz":14303,"sunlight":28320,"listeners":22387,"worry":23212,"##comm":7458,"##!":30189,"pus":12318,"taq":17722,"alignment":6836,"diffic":2176,"##シ":30788,"overlying":30050,"##expressed":17826,"proceeding":21044,"blocked":9072,"1990).":13694,"hopkins":20611,"mcs":18625,"86":8676,"assistant":14705,"breaking":13472,"##ascul":11710,"##volume":14808,"sensitivities":21666,"genomes":11195,"wavegu":11973,"muslim":25584,"piez":17118,"propri":13885,"complexes":5314,"polymeric":19488,"electrom":8261,"gratitude":28812,"##57":5020,"novel":3045,"##be":1621,"##plasmic":21236,"cdcl":13908,"respondent":18896,"##90%":25844,"1+":14710,"##supervised":15340,"extending":10144,"##illin":8414,"##.\"":7958,"mouse":3475,"derivation":10726,"##ener":11931,"zr":20825,"crosslinking":28299,"alum":21571,"possess":6582,"##vg":25812,"precisely":7628,"##lan":8011,"variety":3835,"##gem":22412,"##fab":19500,"discour":25316,"##′|":28335,"##spring":9175,"65":4747,"··":30002,"##aryng":14645,"##kit":13763,"indones":18310,"##21":2076,"cure":14582,"separated":5594,"mart":6357,"norwegian":23879,"encryption":11647,"gis":15741,"cylinder":13755,"[unused40]":41,"##aney":30056,"grown":6191,"##ṡ":30843,"fees":19284,"waste":6882,"pupil":22277,"aun":22895,"##uth":4194,"delivering":17934,"evenly":19066,"loc":725,"##sei":29203,"frances":30073,"fauna":28881,"yl":18209,"mao":24124,"automation":12421,"reviews":7292,"doubly":24093,"##oresist":23421,"##tx":17302,"##strand":11770,"[40":12800,"remnant":26746,"analyzer":12951,"##.36":16207,"reviewer":23053,"tagging":20993,"mason":25459,"##heme":13624,"patterns":2465,"relativ":15798,"##aku":25431,"163":19688,"shah":19228,"wholes":26626,"dns":24065,"##unications":16833,"##stricted":10720,"multin":18231,"(1989).":25055,"algebras":15559,"zo":10931,"##witz":28359,"russian":14658,"##つ":30697,"evolves":22661,"monol":9506,"##:22":27315,"##,6":23281,"stir":10446,"##books":18657,"##ophosphate":23313,"##0001":19121,"successively":23615,"stained":7426,"scen":3006,"##+(":12082,"##arse":5966,"contem":29302,"##ichi":13133,"fitc":20028,"1986.":22344,"[20]":10452,"unsatisf":22626,"##dependent":3084,"guinea":16616,"crs":24989,"stable":3229,"degen":7120,"utilised":29546,"costly":13773,"[30].":15191,"##tex":2801,"##ard":380,"sub":414,"##alled":5558,"spar":28499,"closing":18667,"##arn":19505,"audience":16956,"metabolic":4837,"##ultz":28235,"##exper":11537,"arrest":9016,"obligations":24119,"array":4345,"ple":4641,"248":26386,"complexities":23377,"visit":8303,"bleaching":29195,"##ک":30553,"decoding":11055,"emitter":27240,"##light":10767,"accumulate":15013,"##acute":23346,"bereits":21900,"sybr":25259,"harmonics":16876,"##ored":1835,"relational":11509,"emb":12477,"out":556,"##atm":22951,"kc":14820,"2|":28626,"##effect":16474,"divided":4524,"lysine":17113,"##atomic":24642,"##schem":30093,"[10,":13542,"##⎣":30375,"penn":26976,"##lock":10880,"##+1.":19945,"##+1(":15577,"##ɛ":31087,"##mouth":27283,"paramount":29750,"ectopic":17135,"generators":12370,"ways":4568,"0.94":18615,"multiply":21067,"##ductor":11060,"##izations":4034,"##⇥":30886,"fb":11939,"1996)":17430,"vials":28055,"##agle":19348,"sr":4193,"caries":20953,"##??":28474,"italian":14865,"clear":1716,"cleaved":18121,"tensors":29134,"##best":13175,"throughout":4038,"##ases":636,"##smooth":26952,"questionnaires":11682,"isot":8566,"750":19427,"[5],":11841,"census":14704,"porcine":17795,"##biomed":23136,"quantitation":23164,"manages":26885,"postoperative":6467,"homogen":10018,"chin":18507,"says":12413,"interconnect":22974,"cons":401,"associate":9976,"sf":6767,"transplants":27093,"−−":15214,"##orm":280,"eines":13113,"psd":21121,"slic":23001,"##proper":21340,"hashing":29054,"petroleum":21932,"mucin":23123,"##ylene":17532,"<1":29249,"##center":15731,"##correspond":11390,"##96.":29583,"250":6788,"##arp":24007,"renal":4283,"##23].":27877,"sx":21519,"bx":18907,"##.17":11523,"mef":28479,"##128":18941,"##oscopy":11609,"classifying":18929,"azimuth":22428,"survived":19136,"##χ":30248,"ether":11251,"vander":28020,"##itory":5660,"besides":7007,"##pers":11554,"##circuit":22860,"tut":22929,"epidemiologic":23243,"amin":12333,"significant":684,"maria":21080,"##에":30490,"##ians":10572,"concom":10985,"disclose":22372,"recreational":26091,"north":4656,"##ter":192,"##zh":9165,"droplet":16204,"sift":28181,"success":2108,"challenges":5212,"astronomy":28253,"25-":19320,"yaw":26332,"atrium":26851,"fü":24451,"##istics":29325,"yk":16453,"anticipated":13846,"##01)":13862,"schizophrenia":9814,"##ube":11113,"59,":23849,"mex":9670,"you":3034,"101,":29380,"##%)":1455,"exerted":19236,"##Ф":31041,"ver":600,"mck":17381,"selecting":8930,"7].":26329,"dt":4600,"##blasts":24251,"protected":8776,"lawrence":19848,"doub":6910,"sud":8557,"##ogle":11896,"[unused72]":73,"usually":3002,"publ":27413,"##oney":6801,"intoler":22012,"coup":26607,"3/2":28321,"121":15829,"##∧":30266,"district":10689,"calculated":2030,"##zellen":23475,"checked":10315,"countable":26396,"##cussion":23321,"persist":5088,"##veolar":12232,"##td":3638,"vanishing":20755,"1993).":11727,"alzheimer":11879,"##publications":19246,"hk":13152,"##mit":1592,"incomplete":9193,"##yst":2259,"proves":14315,"##ρ":30205,"competing":7269,"epileptic":23005,"colleagues":7963,"regulate":8060,"[15].":9465,"mans":21715,"typh":19811,"##ft":772,"##eclamp":20659,"clinics":14862,"anonymity":25827,"facet":18558,"##23.":21254,"##bmi":18704,"accelerating":22820,"##sky":10746,"receptor":2629,"intercal":25589,"##39,":26379,"proceeds":15666,"##kson":28588,"138":16344,"−0.00":27409,"viscos":10716,"preoperatively":28503,"responding":13059,"##2:":5231,"pleth":27592,"##":30635,"##–64":28461,"(2-":22983,"higher":1001,"genotype":6967,"overload":15589,"sali":20915,"##ross":1206,"##acrylamide":15876,"arrhythmias":22762,"[33].":16927,"connective":18141,"enc":2295,"individ":1116,"[CLS]":102,"relativistic":21518,"accident":14526,"lord":26965,"ink":18965,"##inent":16020,"nn":7951,"13%":21981,"switched":13569,"ghost":28901,"bro":2096,"2004)":14172,"resolution":3421,"64-":27859,"troubles":27012,"eddy":21607,"##opid":23601,"##gent":8191,"exchange":4446,"values":988,"##tk":11351,"officer":23896,"##:24":27612,"##ext":15282,"ort":28962,"questioned":23071,"244":27065,"histologic":17576,"lipoprotein":11649,"8-":9673,"hinge":26433,"##307":28140,"gaas":26355,"review":1579,"agent":3230,"biomarker":13925,"shi":15374,"##chall":26956,"reading":5589,"(2007),":26230,"##circ":10855,"##jiang":18389,"writer":26186,"##tag":12966,"past":3648,"bioavailability":18387,"+":473,"rated":11328,"correspondingly":20230,"##س":30434,"##5.1":29841,"slowed":29878,"duplicated":25318,"##anabe":24458,"jian":29443,"example":1143,"bio":4686,"##ploys":15102,"meal":14373,"freedom":8244,"sorts":24465,"pleural":18760,"save":13446,"engaged":13030,"agarose":14121,"minimization":12091,"##sung":22015,"##aternal":19517,"jap":3715,"##gets":20651,"neighbour":11317,"##stra":14728,"peterson":23546,"lax":22799,"additive":9288,"igfbp":26506,"##population":25647,"##grow":10179,"unaffected":14058,"lies":8445,"2016":5323,"##square":11911,"mang":12136,"lattice":6570,"agilent":23044,"##1*":17723,"##.~":20509,"##enberg":15566,"metal":4353,"##{(":29383,"fn":9200,"##ocytes":3021,"##fitc":27070,"kw":11746,"subscrib":15838,"comorbidities":17852,"##cis":16621,"chimer":29023,"restor":22940,"##ffl":16911,"gratefully":19545,"ultr":3525,"strengthening":19909,"##kn":8326,"##]/":28173,"##asion":22591,"74":7667,"##nahmen":29936,"shunt":17956,"evaluate":3138,"saliva":19633,"##Ï":30426,"##and":289,"benef":2574,"textbook":28959,"perine":28066,"meanwhile":12499,"0.54":24918,"##related":2689,"chromatic":25177,"2015),":26534,"##brevi":8841,"shim":15314,"##encedi":17288,"##add":7653,"lad":20622,"compan":5942,"tight":7806,"compares":12385,"calibration":6589,"schw":8945,"##sf":12386,"jl":12417,"issue":3060,"dry":5965,"##moderate":27153,"warehouse":25791,"49,":18721,"rounds":14545,"modifies":26245,"convexity":26837,"##nmt":22958,"cardiomy":11319,"quaternary":26632,"emphasizes":19052,"physics":6333,"hot":6281,"##.16":10387,"hand":1500,"1.6":9056,"since":1053,"##anen":23739,"â":12584,"chose":10493,"##recognized":29657,"osteoblasts":24490,"##14]":25622,"cubic":13879,"tender":22647,"##ute":829,"oly":21285,"dis":271,"monos":25236,"canc":6479,"neurophysiol":27186,"bladder":9385,"translating":23930,"##defined":7578,"allow":1301,"reper":18133,"##order":2527,"medline":21674,"##ceiver":21612,"foods":11107,"hypertrophy":14845,"##adequ":10568,"##Ü":30342,"##aceutical":8161,"##lex":2310,"##ational":744,"##poor":21144,"recall":5164,"nth":24216,"##ostatin":20023,"##stalk":21378,"categor":3161,"rug":23613,"##ue":376,"munich":27221,"lifetimes":27051,"##proliferative":24468,"introduce":5359,"multiplication":11957,"blood":1702,"accord":22189,"6/":26093,"grain":9235,"embolism":23705,"##assembled":26020,"schizophren":8949,"##same":26741,"##uca":28382,"[31,":28109,"misses":25937,"##ogonal":29753,"colours":27777,"revealing":16449,"##aci":6307,"repl":2850,"##onormal":23943,"cmc":26161,"##idate":23691,"sarcoid":29496,"##ź":30993,"##-3,":14892,"2002)":14320,"na":2431,"scha":27903,"instances":6043,"mobility":6325,"##ontin":6442,"discrimin":7833,"##uls":12984,"##duc":313,"</":22934,"hollow":18676,"##incre":15684,"##anine":9451,"##},":5333,"accr":23273,"shoulder":13647,"maize":13156,"harv":8085,"##molec":20664,"osmotic":18746,"now":1842,"##를":30614,"branc":8221,"##cha":8804,"mitochondria":9170,"}":3661,"##ically":1057,"vp":10154,"∧":6294,"mmhg":12840,"##iscal":15460,"driving":7290,"laryngeal":24906,"1}":13134,"biofilms":22805,"guanine":29730,"migrated":24845,"endot":4360,"1.0,":27083,"sv":5029,"acclim":20822,"investigated":3003,"##jects":1396,"##vent":2270,"##ins":1121,"##-85":26640,"tsc":26800,"incur":15480,"gonz":18020,"promotes":10137,"abbrevi":9090,"##33,":21643,"byte":23392,"underestim":11717,"##ention":13021,"rc":6446,"##iteria":29245,"##location":14490,"sa":2204,"waf":29086,"volcan":22884,"0.15":10103,"newborn":16238,"inversely":15215,"dic":10756,"posteriori":29322,"cot":9830,"arrow":7724,"unconditional":28414,"efficacy":4684,"realm":25731,"##1.8":16664,"centro":28090,"sis":19947,"##ious":3456,"ohne":16316,"##iley":6102,"mand":6850,"childhood":8428,"##한":30532,"leptin":13358,"##agc":17478,"##international":22128,"##amiento":29372,"trout":20803,"isop":22936,"110":8369,"##ibe":24041,"gabaergic":25628,"##right":8754,"##====":25881,"interpolated":25018,"ubiqu":7548,"wrist":19438,"sugars":19516,"##meas":8560,"considering":3925,"compounds":3684,"[3].":6781,"##((":10107,"3-":3969,"hourly":23403,"1983).":22340,"scf":26832,"lineages":15313,"comments":7509,"##(2),":16832,"cher":18655,"eng":1433,"##inar":26975,"hotel":27378,"read":1757,"brasil":25238,"##-09":28947,"docking":17024,"kidney":5541,"linker":19646,"exchanger":29727,"[70":29431,"cover":4144,"hall":6912,"##geben":19627,"0.05":5202,"shorter":6970,"¡":13090,"##dh":7338,"##amide":5659,"##ض":30815,"communicating":17374,"coast":8805,"instr":3491,"##@@@@":8117,"hemodynamic":15907,"##.3.":10418,"linearized":21088,"4.1.":13566,"diagnosis":2716,"delirium":27646,"eventual":22204,"##ب":30390,"routinely":13423,"impurity":26775,"##pig":25019,"fluency":26548,"##ukin":11864,"piper":24460,"##ysiology":10437,"adipose":12342,"##ile":612,"diagnosing":22978,"86,":29058,"indicator":7202,"park":7713,"comprom":8447,"microwave":11502,"didn":20257,"mg":1529,"belt":21668,"cognition":10613,"##288":27441,"simpler":12293,"##ranging":27518,"british":9816,"pairwise":11281,"mathematic":25432,"centered":11853,"negatives":27589,"##ionine":16274,"##assisted":13680,"##­":30212,"decryption":27291,"##olipoprotein":26617,"vw":28647,"inconsist":8816,"##water":5056,"but":563,"##cyclic":25145,"##urance":6258,"greater":2110,"foil":26512,"involvement":5642,"lister":27279,"wd":19456,"advertising":15864,"congenital":11775,"site":2277,"fastest":22675,"transcripts":9011,"saccade":26560,"??":29648,"caps":8193,"masking":19980,"lorentz":20532,"group":583,"gon":8025,"crohn":23182,"reported":1214,"##変":30889,"adults":4311,"##1-1":17701,"digest":21525,"(25":11959,"satisfaction":6735,"advant":2814,"synchrony":27708,"alpha":6010,"vmax":26897,"portable":17708,"##qc":18846,"collect":9921,"12.":7114,"‡":15353,"drg":26845,"gj":14239,"5.8":17896,"resonance":5839,"313":22627,"access":1899,"cholecyst":25662,"##mur":19313,"lis":13024,"dummy":15851,"340":19374,"##sten":8724,"ambig":8907,"gaussian":5336,"exemplified":27270,"##cause":19381,"##iko":19668,"##ierte":19544,"alv":29432,"ear":1231,"259":26589,"##aa":4871,"##inqu":27543,"##ella":5154,"nets":14454,"##support":18817,"170":14607,"[9":13203,"7.0":16016,"##fn":12587,"##wv":27813,"##=−":21005,"rearrangement":18808,"bounds":7576,"county":12331,"##wr":5012,"parts":3791,"##iert":10889,"−=":17657,"politic":24377,"[8].":7722,"anders":24746,"bcc":28049,"infrequent":26301,"##wie":20939,"##6–":6875,"-5":17844,"wip":28415,"tensor":9205,"##高":30683,"fear":8908,"cnn":21856,"atheroscl":9711,"packet":5022,"##regulates":28077,"[17].":10090,"##ais":12937,"parasitic":16099,"tract":6449,"curr":14993,"computes":13442,"detector":6591,"left":2101,"bap":21707,"pref":7407,"##rospinal":21253,"gyn":12263,"sulph":14119,"ipv":20192,"quantif":4772,";":1814,"spirit":12724,"##cid":24497,"monkeys":15103,"piece":11871,"prac":1560,"##asic":21626,"observes":27069,"violence":9924,"brdu":23278,"##infected":7965,"##&":30167,"21.":8045,"kie":28097,"##ounts":4155,"determin":5746,"##86/":27308,"tests":2732,"harm":4663,"stacking":21050,"(22":16335,"75.":29499,"guess":14378,"##.10":7666,"##结":30829,"##depth":15122,"##server":15242,"ñ":19797,"valuable":7331,"gras":19367,"polys":11692,"##ibular":15236,"##ror":6524,"waveguide":14242,"centrifug":6701,"thickening":22290,"expiratory":29033,"##25,":15025,"gins":24279,"##126":21215,"omission":29002,"##though":1341,".6":7959,"controll":9335,"##modulin":28042,"##eless":11816,"ideology":28538,"##emi":5035,"multivariate":7642,"junctions":14684,"##⎟":30331,"##年":30736,"paro":26240,"∗∗":28906,"##00)":15821,"##anova":15554,"css":25028,"juven":12114,"ace":9214,"206":22772,"people":2325,"kary":20386,"dynamical":10245,"intrap":24118,"##uber":14883,"datasets":6985,"alphab":16587,"zimm":27993,"##.12,":27897,"erosion":14794,"##erent":10347,"4.3":6171,"tie":11464,"undergone":15686,"amer":21129,"pollutant":28117,"clinician":17566,"nitr":7849,"##vex":17641,"finnish":25491,"manufacturer":7812,"contracted":28496,"activ":1492,"##38.":29202,"suspicion":23110,"incor":3245,"##人":30712,"fur":878,"##similar":16570,"##60.":20302,"##ignificant":12830,"##uns":12364,"aversion":22201,"references":4284,"culturally":25500,"##rio":15301,"##138":23112,"##会":30916,"##ansson":26058,"verb":9810,"ergodic":27778,"ng":3312,"whom":7861,"implantation":10949,"##ocaine":23509,"undetectable":22390,"##astically":15337,"reagents":10969,"employers":22915,"asynchron":12813,"tw":459,"constructions":17426,"##gaussian":25180,"molar":12935,"perceive":16101,"[SEP]":103,"dabei":20676,"##umi":19814,"cel":13051,"handover":22469,"##vin":8859,"##现":31046,"bovine":8721,"indeterm":23526,"hg":7571,"argu":22777,"##iginal":27534,"##ariant":26532,"logs":18955,"##7.9":24398,"situ":2333,"college":4936,"[unused19]":20,"concurrent":8066,"($":23023,"labeling":8644,"electronic":4548,"itself":3987,"hundreds":14949,"##handed":23168,"##atio":14175,"arteri":16837,"permet":27635,"efficiently":7132,"photoreceptor":29350,"issued":15922,"##design":12832,"##ncbi":24048,"profits":16866,"foc":1657,"hla":9995,"instruc":4749,"neighborhood":7767,"##pairs":29320,"properties":1784,"genetics":8476,"mort":14997,"##msc":25884,"##65,":28615,"##brow":15080,"grew":17126,"zug":20710,"##93":4520,"overw":17952,"0.8":3106,"viral":5294,"ð":3861,"stimulates":16482,"utterances":21720,"##imensional":3232,"##sug":29796,"rick":21587,"negatively":8307,"clamp":14937,"2000),":17466,"prist":28487,"glo":14483,"siv":22004,"##abo":24067,"##.2).":29328,"wild":3530,"##locate":27753,"belonged":25424,"established":3452,"lectures":22861,"##(∂":30047,"corticosteroid":24193,"commerc":4356,"##lv":12123,"##]).":10950,"scott":15041,"microtubule":17955,"scientists":10639,"seeded":15154,"improved":3007,"##phosphorylated":26071,"##roscop":2246,"ina":29072,"##forcement":9785,"wp":17987,"sondern":21101,"benign":10346,"mostly":6109,"[3],":11542,"scd":22404,"downloaded":7448,"##chair":23788,"positional":22250,"##ontrol":16877,"migratory":23668,"protein":787,"##asian":15186,"0,":1862,"immunodef":16220,"polypeptide":18479,"poul":18398,"##31.":11513,"biotechnol":22758,"##modified":14786,"scaffolds":16142,"centers":6618,"gradual":14474,"##oxicity":20443,"stead":19016,"##bi":1903,"ches":23180,"##arro":28910,"voltages":12628,"thought":5168,"strategy":2691,"ample":26059,"##uder":20040,"xn":7607,"##azaki":27567,"##管":30856,"ligands":8922,"##.22":12488,"deliver":3392,"##و":30354,"queues":22349,"mediate":12067,"pmma":28879,"calendar":25102,"##aking":3869,"sent":3759,"vibrations":20758,"effectively":5419,"##5.9":24095,"wikipedia":24907,"bere":11872,"##157":22586,"##stress":21433,"endoscopy":18722,"difficulties":7764,"pgc":28892,"2016)":30085,"520":26942,"ease":11004,"maxim":3068,"thomson":29740,"##❛":30617,"gering":18597,"##나":30785,"##X":30498,"##xy":4249,"##sen":3720,"downs":24261,"apps":21945,"philosophical":21359,"source":1908,"estimating":8396,"bug":14132,"##otrexate":23996,"##ophthal":27510,"##–":30157,"bayesian":8631,"dimethyl":17494,"attribution":9849,"##1%":17125,"su":1163,"engines":16641,"##eren":8406,"02":9492,"imag":6488,"##있":30700,"##Λ":30253,"linearly":9985,"er":701,"##ban":4435,"bottle":24074,"thompson":15596,"belief":8905,"aqueous":7703,"oceanic":27176,"leaching":25944,"[unused57]":58,"##false":25665,"gsk":20362,"##2%)":19101,"elaborate":19384,"traverse":27779,"##tec":27734,"listening":18062,"pir":15185,"##ool":2293,"##/12":15714,"ascertained":28001,"##cdc":19138,"##位":30834,"bidirectional":19209,"omp":26228,"commit":3728,"##pear":29463,"15).":27832,"exch":3702,"regulator":10721,"##cohol":4403,"journal":2042,"##molecular":12018,"##kung":15139,"sought":10637,"1990.":16300,"##+.":18414,"##ferentiated":19041,"milieu":28666,"kup":26312,"##paper":25765,"spins":24174,"##bearing":14809,"##ê":30277,"##icher":16027,"twins":21366,"##analytic":25054,"capital":5153,"burn":10851,"##hrend":19444,"sake":16124,"intraven":8574,"fishes":20126,"##ls":3176,"##obac":19692,"##galactosidase":24245,"##ogenetic":6876,"##16]":27798,"##uncan":25217,"##eten":15842,"##ostomy":21531,"underpin":27951,"pav":20849,"##k":30135,"osteoporosis":16361,"permanently":26890,"asymptomatic":12791,"gfr":22834,"##2].":3818,"##atur":7741,"chimpan":24336,"1986;":15813,"##1-2":21796,"1.01":20815,"1−":6381,"optional":20428,"buck":11778,"beob":14566,"##sink":15620,"[unused80]":81,"cosh":27499,"pean":27501,"##abe":9878,"polymers":11040,"fever":10551,"loops":10218,"counsel":23573,"white":3606,"commens":25291,"triple":8023,"550":19552,"dj":9565,"cytosol":19100,"##oped":27445,"ase":19807,"##itter":8865,"resour":1998,"35.":13170,"conflic":3807,"##6(":24991,"0.0001).":24100,"surprise":23170,"immigrants":18784,"party":9408,"mob":3155,"##ño":22370,"lith":9399,"0.19":14694,"spac":15820,"hypothesis":3323,"##Π":30282,"5.1.":19911,"##acm":23184,"hela":15044,"##7.0":12853,"muss":23048,"137":14671,"input":1653,"##assung":25877,"##gran":18834,"##vac":14199,"bill":8115,"##ality":901,"wald":27220,"##atically":3664,"vie":27470,"##reted":25007,"##ulture":6221,"##insky":21336,"##ю":30521,"underway":28357,"37.":13853,"##⊓":30854,"formaldehyde":20965,"(0.00":21037,"dermatitis":23775,"##liu":22872,"feeling":14246,"##drug":12325,"applies":9203,"photosynthesis":18917,"##121":24534,"##⌉":30558,"263":28256,"##7)":1490,"hepatic":7221,"##ophys":7561,"extrapolated":26182,"applying":4880,"respon":1008,"##180":18281,"##imming":14827,"powers":12399,"belonging":9386,"neuronal":6406,"cooled":17660,"lavage":27399,"noch":12447,"emph":4581,"deployed":12160,"##/−":15450,"##sem":12468,"angles":7748,".(":25082,"##apy":3527,"xen":9553,"##short":20713,"##21/":12795,"76,":27816,"futures":28237,"##ś":30474,"##heastern":20341,"##y":30126,"cities":10882,"rearrangements":21540,"dendrites":21673,"detectable":9292,"##omi":23364,"oak":18090,"urol":24544,"2011,":8335,"boy":12481,"aller":13880,"ruled":19303,"frozen":10510,"formul":7937,"##abstract":15665,"intram":12446,"appreciate":21996,"autonom":10163,"discovered":8847,"##表":30662,"##published":10419,"##actic":5930,"decon":18974,"interpretations":14639,"[1].":5578,"apache":29120,"succession":20570,"participate":7686,"acute":3325,"subsystem":15425,"##ihara":25991,"dwarf":24300,"##zung":22835,"suggestion":16598,"nong":27431,"pass":2944,"suitably":29303,"symptom":8316,"adenovirus":19476,"dilutions":20290,"conferred":28276,"within":1017,"≃":17336,"185":17149,"lifespan":21829,"tian":19156,"luminescence":22809,"conc":895,"fellowship":14804,"##gue":7604,"##imurium":26707,"abdomen":17748,"lud":22540,"microphone":25773,"imp":1082,"##ipt":19993,"≪":25610,"synaptic":8542,"compliant":23635,"##roid":4441,"dor":16058,"cd":1389,"peptides":6607,"##adh":25094,"chrom":2368,"##itor":1602,"(1984)":23280,"##ibri":3516,"##eptides":15362,"##pubmed":12750,"surprising":7184,"not":302,"hormone":7159,"hospital":2278,"egta":28319,"##ancies":7589,"##И":30751,"##28,":18987,"##kf":22103,"look":4958,"distortions":19338,"##Č":30865,"prophylactic":20281,"##♠":30824,"fabrication":11574,"##glich":14222,"builds":18619,"hypothermia":25278,"##17.":17990,"−(":19506,"##write":22848,"strip":16029,"##diabetic":23540,"prevalent":11489,"endometri":20240,"gaps":10817,"insight":7673,"substitute":15544,"running":5463,"determining":5735,"birmingham":26808,"vis":1258,"##sti":28515,"dichlor":23465,"##perf":7768,"palliative":17241,"##αβ":18257,"conditioning":12063,"uter":9975,"microtub":12155,"spline":23963,"`":5114,"interrup":10196,"##vary":14018,"##∕":30598,"actively":11785,"##cls":28032,"similar":868,"##ventive":12394,"##serum":18616,"ophthalmol":25270,"bod":15399,"paradigm":8283,"##shock":26676,"##행":31057,"participant":6602,"2:":5562,"##kar":11779,"different":643,"##eline":2639,"invasion":8268,"##menopausal":15768,"(194":20541,"acetone":16965,"streng":3023,"amelior":17590,"contingency":24011,"##.55":20715,"remodelling":29428,"##acoustic":29999,"myof":28179,"yielded":9378,"##波":31020,"gar":8378,"##–17":16810,"health":947,"less":1279,")=":29218,"listen":16790,"##接":31051,"##oxygen":12614,"colorimetric":28122,"modifying":14548,"complex":1127,"exports":22467,"transp":25197,"cabg":28337,"##estim":17575,"credible":28177,"familiar":8818,"##oscopic":15607,"##ka":3776,"##tip":15303,"##stant":15928,"##−−":15148,"experiments":1713,"stewart":21800,"##loc":9672,"##hous":21319,"import":877,"wol":8648,"##5):":29100,"flowering":19380,"##–6":9839,"##jee":19509,"oncogenic":22183,"##akr":23433,"##ere":8602,"perioperative":18966,"auto":5975,"zwischen":14434,"##tiven":25666,"!":3190,"subsequent":3766,"##❞":30873,"##hip":1192,"allelic":20529,"##mrna":25577,"bytes":16256,"formats":16788,"ens":2658,"-8":27196,"##lings":9101,"##knowledge":22130,"##.4,":11344,"wk":11154,"equality":10247,"culture":2343,"##ifold":19981,"acetic":16559,"needed":2764,"timely":16212,"bps":25634,"pathways":4313,"amongst":13373,"arbeit":19312,"[65":26821,"winding":19173,"inconsistent":12366,"sowie":17186,"[10].":8110,"1988,":20521,"thrombocytop":22573,"(2013)":11701,"can":300,"sect":13521,"##reno":16175,"stainless":21262,"##agement":7471,"age":1407,"highly":2487,"xf":27662,"technical":4147,"subjects":2305,"##ashion":8666,"##ficially":20792,"##noise":12759,"69,":27001,"finance":14087,"threats":15504,"hemorrhagic":23271,"##hydro":4275,"57,":23010,"glass":5860,"##/10":11443,"agar":10307,"slice":11735,"curv":8426,"commercially":12604,"scales":5690,"wiley":7348,"##yll":11064,"mb":6369,"##label":17804,"##oter":24573,"environmental":3079,"##acht":10668,"impulsive":26776,"##ho":6147,"##speci":27884,"[6]":6047,"tax":3764,"##ahl":6810,"pharmaceutical":8745,"governments":14282,"pakistan":20109,"tumorigenesis":20897,"0.01),":26524,"macroscopic":15680,"##lett":16203,"zealand":14678,"##anna":25215,"microv":22027,"waveform":12600,"learners":11970,"colloidal":21142,"(9,":23457,"periodontal":17587,"proteomic":22831,"wavelengths":12425,"##irc":20769,"##n":30111,"seed":3678,"methyl":6090,"gran":4349,"lo":881,"supp":20188,"cations":14925,"film":5796,"bax":15810,"##zens":11451,"taqman":27764,"lass":24935,"##관":30756,"Ψ":8767,"move":2437,"##234":28905,"induced":2651,"(2,":12085,"question":2214,"##ary":363,"##technical":27009,"grap":9544,"meters":15483,"singh":15717,"##__":2183,".8":7895,"spect":3370,"oncogene":18977,"sectional":27554,"##atr":7721,"sheet":11270,"rigorous":14833,"diego":13893,"##iphatic":28883,"##ick":1273,"explor":12735,"##ocket":12654,"##xr":12320,"##ité":12356,"##odds":24939,"##itrogen":4628,"##电":31065,"publicly":16222,"##rosine":8820,"synthase":12242,"gén":26549,"plane":4407,"retrie":4242,"glutathione":12915,"##noid":26472,"[40].":21078,"overlo":23307,"##fronti":16624,"allergy":14073,"##inkel":28727,"so":564,"##tas":28007,"preem":23401,"nuclear":4097,"electrons":9365,"israel":13005,"2011).":6895,"##atgg":25518,"restr":16304,"##mim":28877,"passes":14397,"dental":7766,"##ström":22463,"ll":5078,"##비":30867,"ellip":8770,"##.4.":15501,"purified":6193,"ew":12113,"fibronectin":21187,"##arynx":19612,"gating":18316,"epilepsy":11956,"reservoirs":23743,"prolif":3726,"##ā":30373,"alters":17318,"##forming":12014,"##atom":13899,"dsm":14227,"aberrations":23038,"##Õ":30413,"slo":13882,"##0〉":28308,"##separ":18465,"keeps":16900,"##rg":17640,"##ually":1376,"edta":12327,"overhead":7654,"(30":11038,"accesses":18279,"simple":2177,"##hand":5853,"audit":15943,"##‰":30516,"lastly":16065,"trait":9491,"cle":3374,"##von":26853,"##plast":29165,"thf":21465,"[49].":27694,"represent":1032,"worthy":29756,"invol":1270,"##ム":30912,"naeh":14300,"##pn":9358,"oo":12928,"##ours":2438,"##edema":23024,"##selec":9429,"##primary":25558,"##special":22597,"client":6182,"python":25311,"rigorously":29828,"##cant":13522,"##camp":20505,"##value":5534,"attitude":10924,"regimen":11685,"insurance":8564,"colors":12722,"violated":21249,"##36,":22885,"interrupted":23470,"staff":5680,"##coded":23520,"##hs":4516,"lower":1268,"resusp":13026,"copied":27634,"flav":8099,"##pati":5013,"mammalian":8619,"[50].":28541,"inten":3741,"entry":5762,"chun":18856,"106":8680,"propor":2756,"funded":10084,"isl":21741,"paren":14017,"adm":9218,"defend":16806,"##asks":18213,"2002":8063,"##ini":4983,"##ophan":19146,"##ues":639,"##elson":12501,"##akt":11626,"chl":12988,"nebraska":28297,"spacing":12150,"grace":26408,"averaging":11558,"##ż":30451,"##r":30114,"occupation":15739,"sleeping":26668,"##ž":30435,"nucleic":12539,"##north":28266,"mist":12905,"1,0":21907,"according":1425,"##ðn":25809,"parking":25651,"inverted":13455,"q":735,"stimuli":5295,"##일":30977,"##owitz":18293,"##sv":10231,"gauss":21599,"ppt":27794,"mehr":13038,"reproducible":17588,"baseline":3263,"threatened":26200,"cpu":9211,"arth":5925,"repository":13805,"##flight":25840,"mammography":28365,"andersen":28227,"##ow":183,"anticipate":22601,"surpr":6256,"##ahydro":20353,"##clc":14163,"cleveland":26620,"village":17719,"eaves":30000,"##imentary":27010,"stimulated":8157,"##xu":21024,"##loo":29925,"##示":30715,"##hesda":25297,"earliest":15935,"investigates":21138,"helic":13143,"reward":8772,"##icine":13817,"0.74":20208,"##osom":25529,"(6),":17636,"unnecess":13279,"##fors":22178,"##17].":23264,"gui":22067,"##vity":10267,"##1}":18981,"progressed":22928,"20.0":24949,"##harmonic":23703,"##ĝ":30441,"meanings":17607,"london":7148,"##Ä":30372,"hur":11730,"⊥":15963,"##orov":22209,"investigations":7485,"peptide":4760,"lem":21987,"accel":4431,"progenitor":14289,"##gravity":25151,"deployment":10524,"convergence":5287,"gv":14680,"helper":22032,"##可":30646,"##↪":30723,"##uka":21039,"##structure":7649,"##ectives":5910,"segmental":20960,"scheduler":17131,"reducing":4443,"dimensionless":20892,"volunteer":23069,"correcting":21563,"##pus":20467,"incident":7956,"(0.":2286,"##iste":24053,"rip":9127,"survival":2842,"corruption":21152,"elapsed":25601,"##pier":25433,"monitoring":3725,"##tyr":25400,"crash":20116,"innov":4561,"expresses":16836,"convenience":13585,"##rupt":13363,"187":17504,"(34":23240,"cycle":2859,"loosely":24000,"compe":15891,"carb":2445,"ideals":24175,"##restricted":24837,"##13":1428,"##̸":30696,"##otide":5640,"likelihood":5452,"misleading":23399,"sharply":20701,"contributes":8526,"##sivity":14839,"##action":748,"england":10960,"∗,":26950,"ellipse":27463,"##west":11070,"##acchar":8124,"occas":8194,"arms":11610,"verl":18340,"##known":3395,"##oki":26905,"axioms":18135,"open":1937,"corticoster":14102,"administr":3058,"rewrite":18313,"##state":3586,"hea":24426,"278":22495,"baltimore":22141,"contexts":8653,"##%);":29178,"exagger":24320,"vir":1470,"profiles":4968,"resistivity":21234,"ped":6176,"##ococcal":15477,"graphite":22131,"##mm":2561,"stoichi":19319,"glas":21151,"aspirin":15858,"enti":2830,"##hl":4697,"wid":2582,"gesund":27410,"saline":7116,"extern":17518,"##20-":24836,"##⎪⎪":14000,"fwhm":28999,"hypoxic":17171,"##£":30306,"##othor":20738,"consumer":7710,"maintain":2603,"##anil":20940,"##ition":319,"##based":1369,"semigroup":25546,"preferably":29972,"utilizes":15915,"protect":8986,"spend":16330,"##lington":28902,"interviewees":30066,"orbits":17976,"##ose":531,"##fisher":27465,"cosm":13793,"vision":6021,"intracellular":5609,"##ós":26069,"kinder":21801,"[unused25]":26,"[20,":19250,"##elong":28085,"olive":16581,"##ene":876,"macroeconomic":25312,"kont":29427,"lb":9813,"segreg":11473,"nrf":20843,"specially":19937,"##ergy":1225,"inferred":11811,"appoint":18650,"2015)":22786,"occlusion":10201,"##̳":30901,"anna":27228,"chow":19407,"entrepreneur":22094,"election":18564,"built":5896,"vf":17870,"camer":12197,"macromolecules":22148,"##語":31008,"executes":23574,"eryt":17931,"denial":29228,"geodes":18182,"##itus":8592,"2005,":8435,"##utive":4596,"##reland":14790,"##aphthal":27331,"substantial":5709,"tolerate":23210,"postnatal":14985,"testbed":23102,"##matched":14343,"(2009),":27177,"[23,":21551,"facs":20927,"remaining":4234,"pose":10693,"##lycer":12572,"researches":18011,"timing":6435,"##dam":11083,"mph":24249,"##enol":22139,"neuropathic":27136,"constructed":4930,"##plasty":12372,"##ancers":24539,"tumors":4114,"confirmatory":28840,"##inating":16146,"fermi":18622,"##izes":2632,"states":1898,"sos":21033,"decreased":2664,"langmuir":21425,"##70.":25098,"licens":12301,"##›":30475,"sources":3117,"##ät":10433,"obe":26484,"christian":16979,"filamentous":28397,"mich":6842,"constr":1919,"##quartile":22797,"##psin":26765,"kennedy":23770,"##ucht":25308,"##wes":10236,"arriving":22243,"else":4192,"318":25027,"pressed":29589,"##anal":10989,"##metric":24727,"nu":11097,"##3,4":26098,"astro":28648,"swelling":13648,"[unused55]":56,"vehicles":8287,"50,":13061,"depending":4331,"overcoming":25368,"office":7638,"fund":2244,"##tif":3238,"iscussion":27758,"assays":5443,"##heim":10100,"́":7215,"alc":27436,"##besond":27913,"sah":16905,"pipe":17628,"vegetation":9723,"functionalized":26602,"ture":23138,"rud":16068,"lind":10566,"##alu":942,"daten":23225,"lacked":22281,"2001),":17279,"embry":4100,"##email":27902,"constriction":28484,"##transformed":19637,"##will":17754,"dat":397,"##40,":17878,"duplicates":28399,"chr":2453,"##yellow":27723,"vulnerable":12144,"von":4224,"##isi":15039,"tree":3093,"lands":24662,"##.2.":7978,"fine":6571,"##essional":26655,"barb":17418,"cheese":29149,"##rogens":18893,"stringent":19697,"lamina":20552,"##단":31070,"##enses":9104,"phosphorus":14866,"employs":15603,"introduces":10646,"##icin":11274,"impacts":7681,"Ñ":20679,"##zen":4633,"##ares":4509,"##oxetine":27549,"0.28":16435,"transplanted":18042,"niv":27697,"##vestig":29961,"##mw":14015,"##atric":3772,"advis":14863,"endos":18587,"kerat":24788,"##berts":11897,"##oh":1580,"hab":4049,"permission":6829,"demod":25823,"willi":7515,"seques":19965,"##bilities":7792,"err":1416,"endovascular":23795,"##ategor":3029,"##kb":7422,"Ã":24411,"##above":29037,"##groups":17918,"##unter":26025,"##rigel":29986,"devast":29702,"regulates":10359,"##interaction":28704,"##ochemical":4470,"gvhd":24030,"ckd":16575,"##cac":27397,"alkal":8410,"averages":14858,"[unused69]":70,"spie":21660,"periodonti":26838,"assumptions":5502,"notwithstanding":29240,"mete":14457,"zig":22207,"##amines":17604,"walsh":26403,"unbounded":21641,"barnes":29148,"##¦":30449,"(1999),":27769,"subgroups":11205,"pricing":12775,"lethal":15629,"##ci":1644,"invasive":7862,"##dr":1717,"decreases":4819,"##pure":27864,"condition":803,"##ynolds":15956,"##itary":7164,"learned":8709,"relations":1405,"[23].":12200,"##isms":1829,"electrically":23512,"misclass":21263,"ranked":13494,"xs":16926,"potentially":4705,"dep":719,"##−1/2":24417,"##imid":23420,"autopsy":22905,"agree":8298,"papillary":22869,"rotational":12736,"[41].":21806,"rx":15117,"reconc":19985,"##∝":30447,"##–44":25077,"eleg":12728,"##ー":30497,"biod":13240,"##essen":17054,"##iveness":20699,"(2003).":13515,"careg":10918,"99.":16945,"ep":1177,"doubling":20534,"hypertroph":11907,"##動":30780,"##romyces":20303,"##31,":18552,"##tillation":17314,"##tiveness":15653,"dipl":19106,"spleen":11230,"appropriately":13179,"##rel":801,"##ampl":15899,"salmonella":15216,"##amus":13274,"##증":30949,"##world":9290,"##binding":6459,"achieving":9153,"##ward":1176,"##Á":30362,"splen":17716,"##estinal":5204,"bab":8833,"##infrared":22987,"ah":7839,"preserve":12846,"##22":2000,"instead":3222,"75":4710,"ground":3443,"92%":29862,"##doped":20216,"gmbh":13456,"uv":5500,"concern":6366,"managerial":21065,"##earman":18643,"##othy":24116,"##∥∥":14910,"est":1596,"inequalities":12309,"##ipa":20869,"structurally":16558,"##rms":23600,"malign":5422,"##ðxÞ":22398,"##)-":3831,"manufacturing":7887,"##reduc":8691,"enf":20516,"##156":24652,"##bv":18791,"maintaining":7732,"2012).":7443,"##bas":8850,"##protected":24280,"##01).":21170,"0.91":25760,"briefly":6669,"##kinson":9991,"2013)":18151,"evans":16681,"partic":657,"##dern":14829,"ataxia":26913,"desktop":21818,"perceptual":11377,"##06":8069,"##figure":1794,"collective":10405,"taipei":28018,"exploiting":14322,"neglecting":29116,"yielding":12357,"##ersen":10170,"surgeons":12361,"##),":293,"appro":581,"forecasting":14305,"blunt":25096,"[42]":24034,"##⎫":30731,"rés":20483,"16).":29550,"cleft":21309,"##2.1":15893,"2008)":14109,"resembles":19067,"Δ":6185,"intrav":15673,"xrd":20325,"##coupled":15099,"coated":11938,"hydration":20149,"##inas":25846,"cultiv":7502,"klinik":22520,"hygi":15564,"##possibly":24274,"jus":5694,"128":9737,"dpi":24860,"tq":26517,"##lysine":28392,"##oic":18152,"##nps":21836,"##포":31067,"rivers":17743,"bottom":5473,"supplemented":8779,"lacks":16167,"##6%)":11279,"##antic":24744,"prox":21208,"##cy":2550,"[unused52]":53,"scr":7620,"parsim":22301,"##ariable":17442,"bart":13742,"diffusive":29571,"##bach":10213,"pn":6553,"arbeits":29839,"##mscs":19023,"catech":16237,"nice":18502,"mainstream":22680,"hyd":10226,"discrimination":8422,"##nson":24352,"haemoglobin":26991,"caucasian":20495,"[5]":5953,"direct":1381,"ral":19938,"⇔":26184,"signalling":10636,"zus":11407,"biomedical":9981,"ec":1855,"##supplemental":19801,"hierarchies":24017,"cured":25325,"suppressing":21008,"##5],":9440,"##gre":15590,"##imum":1420,"compress":16396,"forma":30019,"##luent":13292,"recons":13547,"corroborated":30060,"dissipation":14123,"combinatorial":14317,"separates":23472,"##210":26393,"lps":8196,"program":1618,"##training":19678,"oscillating":27137,"##isy":11197,"narrow":6159,"##exc":19669,"##seud":4517,"concentrates":28724,"##(4,":23796,"ow":1747,"whole":2868,"figures":4926,"##iffs":25216,"cusp":27967,"##particles":23548,"outlet":20360,"cyn":27637,"mosquitoes":23657,"##correlation":18309,"##son":2577,"##trin":24613,"##ater":515,"##mail":3429,"klf":28339,"##∞,":16037,"biomed":7549,"##bourne":22121,"associated":1111,"##4,":1038,"supers":9618,"amb":5575,"##ovascular":4675,"##blind":13777,"##je":7360,"(3.1)":21716,"2000":4708,"photoc":14601,"##trp":28162,"metropol":17470,"owner":14481,"##olytic":8988,"##érie":28264,"##ethylene":13938,"205":19252,"##med":1324,"2001;":6623,"##ype":1612,"(200":1204,"##〉":30230,"##(4)":8530,"stoch":6067,"tandem":14817,"##ibrary":18594,"infarct":19769,"stain":11921,"retail":12175,"densely":24944,"##aran":16259,"##ophen":14648,"seminal":20014,"##190":22700,"town":18400,"##sci":11371,"ix":10326,"produces":6707,"possessed":23188,"perce":3273,"jy":22670,"men":1801,"##!.":12818,"0.01,":18348,"manipulations":19658,"##标":31068,"claims":9260,"ata":29206,"correc":3522,"hx":23762,"tf":7746,"##ymet":27890,"brazilian":17675,"##hiv":18886,"avenue":16669,"(12,":25350,"flowers":17912,"centrifuge":29055,"##generative":17510,"prompt":14334,"therapies":8876,"##akes":6822,"##uma":13878,"selectivity":10788,"##26,":18326,"##romycin":16372,"##ut":181,"solute":20398,"repeated":4235,"##ẋ":30422,"brist":22610,"##図":30975,"##astic":2676,"##7],":9736,"##encephal":15694,"##irs":22006,"compositional":23228,"##tab":20591,"too":3872,"##cutaneous":8415,"biot":5600,"(6":3100,"compartment":10926,"element":2690,"postulated":17631,"1981;":21325,"minimizes":16423,"amygd":15218,"representations":6859,"merely":12102,"##’.":8540,"nar":13903,"##neutral":21141,"syntactic":13510,"py":5702,"fung":5958,"##ã":30242,"##stad":16424,"princip":3251,"nsaids":29013,"##sinki":17294,"viol":4843,"##overn":16438,"##acrylate":24663,"here":1530,"tanaka":22416,"##teil":14201,"rays":17538,"then":666,"##riers":18880,"inj":1686,"##ould":613,"emphasizing":25090,"moi":14240,"##idation":10967,"nonempty":23241,"rif":16562,"glob":2199,"chd":17623,"isotype":28212,"gr":544,"transmitted":7303,"##otax":24471,"doctr":23588,"uniqu":9965,"##aclitaxel":18801,"##ju":10685,"##month":8180,"colonoscopy":24680,"topologies":16406,"denom":16889,"2000).":6992,"pert":5002,"##fu":10916,"bloom":19802,"tilt":18212,"yin":22637,"##umen":19590,"recap":23818,"triangulation":21775,"435":28278,"##/17":20677,"##-5,":25604,"1996.":12693,"conductive":20356,"##yme":28092,"already":3440,"##pling":2235,"##tige":18089,"10":566,"lifec":27800,"groundwater":16269,"shape":3540,"##1–4":28646,"##tj":17476,"##brain":11410,"[17],":17004,"##onoi":25982,"hepatology":26066,"truncated":12969,"encounter":15222,"##carbons":22377,"tended":12308,"##reme":6682,"##facts":22369,"replicates":13607,"##verse":1897,"choline":24252,"])":22314,"engineers":14329,"##uries":8103,"cpm":27963,"go":796,"signaling":3354,"sp":273,"##match":29278,"##nz":23385,"##♣":30820,"puzzle":26253,"offer":5066,"##vile":17031,"fold":7966,"ove":13548,"produce":3299,"placental":18208,"unsupervised":18391,"δ":2320,"##치":30808,"##co":1173,"##7695":25873,"atopic":26751,"draw":3603,"went":14606,"##los":12222,"87":8468,"kobayashi":27520,"banking":15912,"kp":12626,"##psych":8053,"hund":7886,"##⁎":30480,"##iv":296,"spir":10481,"##tish":8840,"discontinuities":26314,"narratives":25733,"##aac":27273,"cooper":9828,"artifacts":11376,"idiopathic":17212,"guang":19570,"analogue":13964,"resid":2078,"widely":4276,"##cap":8452,"underl":18329,"electros":22757,"ia":5551,"encouragement":26231,"ellis":22723,"aureus":11723,"##.4":987,"##product":15546,"centres":13739,"##las":8977,"analges":11928,"##bec":9557,"migr":3556,"##я":30358,"haem":6805,"pads":27491,"fungal":10709,"classes":3899,"adherence":9755,"definition":2248,"##mingham":26044,"schle":22735,"reviewing":18534,"pointed":9837,"creates":10448,"hierarch":4766,"antimicro":8651,"pitts":19044,"420":22427,"##tions":381,"upgrade":29490,"desc":763,"rodents":17800,"##10),":29721,"lun":18659,"##isors":19076,"lesions":4278,"##edented":26642,"zl":26505,"gros":30064,"hypothyroidism":26969,"hut":25849,"1996),":21006,"##idase":11625,"##ubated":20714,"##evoked":26373,"##ysis":2964,"measured":1649,"##∙":30482,"mpi":19207,"fungi":12255,"galax":7725,"debt":12371,"distribution":1382,"reaching":9469,"##ics":1081,"##hentic":7404,"##neu":12387,"psychotherapy":23202,"valle":28284,"detergent":24321,"##ри":23213,"tourism":17380,"bt":9212,"##assium":9901,"pubmed":12748,"hook":24765,"aav":23717,"##-49":24207,"##bildung":22583,"##xk":9346,"covari":5552,"smokers":12809,"fibrin":13011,"declare":10688,"hypergly":17321,"##pharose":26012,"gathering":18527,"educational":6336,"programmable":21593,"resili":15638,"##地":30982,"severely":12336,"##kee":23970,"[unused86]":87,"disambig":26759,"##ochemistry":6676,"encompasses":23460,"revers":18810,"##⎞":30395,"##pressible":29963,"sch":1097,"##/08":29335,"eis":24154,"##typ":7276,"##50":1241,"##periodic":24013,"sensors":4965,"atten":2570,"##tis":1935,"rag":17117,"hun":10731,"affordable":26435,"cbt":26419,"electrodes":8438,"##gd":6709,"god":12001,"agon":8010,"think":4960,"infinite":7933,"hay":11117,"combination":2702,"exacerbated":28778,"##stimulated":14379,"##isal":16950,"##7),":6212,"directors":21160,"1,2":23105,"maximization":17991,"barrier":6940,"tumor":2074,"patrick":27909,"pfe":29388,"##ら":30510,"##−1(":9202,"breastfeeding":19225,"##amy":7203,"##-60":17977,"traff":3847,"conscious":10655,"lyn":16017,"(1−":9022,"70":3509,"##isen":9730,"##aft":3679,"##–36":29745,"##0.9":12823,"1:1":18562,"##ticle":26645,"enhancer":19344,"∞,":19036,"##”)":12050,"hyper":1884,"##station":11584,"agricultural":7675,"rhythmic":26962,"drastic":25728,"##99":2510,"bear":12072,"managers":9472,"attentional":18661,"peo":22937,"pearson":13003,"erlang":29060,"##’":30158,"estr":13343,"##els":1364,"buyer":19588,"##frames":29690,"25(":26766,"rome":21001,"temporarily":23219,"peak":2391,"##idson":23914,"##)}.":27000,"slow":3448,"tinnitus":30074,"daher":26888,"##,1,":18536,"ecg":12878,"pras":26322,"##ieties":11504,"(":145,"jedoch":20313,"##cont":3361,"hydrocarbons":22866,"evaluating":6785,"##akov":25305,"meetings":15127,"systems":1078,"prison":18304,"neglec":11289,"pauc":26678,"pressures":10670,"multitude":26592,"##َ":31066,"cerebellar":16464,"rad":2768,"occasional":20647,"expense":15685,"##subject":20146,"philadelphia":18211,"replaced":6703,"##dle":3814,"hash":10763,"##über":29141,"continu":1833,"literature":2501,"levels":1049,"##aping":23575,"cort":29822,"##>,":27106,"##anov":26900,"fad":24345,"##method":17455,"##ropathy":16888,"deposits":14203,"lifes":19288,"scheduled":13031,"##⇔":30506,"would":989,"ensures":11224,"graph":1845,"##要":30653,"fits":11910,"melanoma":10075,"[30],":28481,"prefer":5142,"##⎯":30726,"##ables":1316,"venous":9607,"ij":5915,"##ausea":18525,"olfactory":14730,"##()":11476,"##ersonal":14389,"recurrence":7339,"##ographed":25668,"gel":4051,"##otoxin":21454,"encephalitis":27494,"plan":3416,"##vas":19055,"##’).":27066,"##83":6207,"##ogeneous":4219,"academ":8558,"##iatric":16245,"dna":1732,"distance":2184,"inf":554,"cranial":17919,"anaph":25786,"superoxide":14855,"artery":5210,"##··":12262,"thing":13628,"117":14447,"symb":6976,"thermodynamic":15224,"tors":22949,"fent":23534,"##[(":17911,"gy":8170,"rms":10588,"diagram":6046,"bonded":23152,"thorn":29104,"##omen":1521,"##bar":5025,"safe":6828,"##int":2600,"6":370,"##ticing":21245,"20%":7525,"##existing":13287,"guaranteed":12982,"##dominal":7108,"conceived":15839,"##상":30647,"hex":7716,"addiction":17398,"wages":16157,"##urane":19974,"9(":24161,"stata":30027,"##mond":14521,"rarely":9439,"platform":4321,"speculation":29482,"##amphetamine":29314,"shared":5026,"##kc":20775,"beding":25404,"consec":6806,"conceivable":26537,"yp":18970,"##<0.0":9425,"nitro":12863,"##keys":13417,"rj":10468,"##encoding":28762,"##ö":30224,"##methoxy":25070,"##ership":7310,"jpeg":26243,"##un":164,"intensity":3165,"[unused16]":17,"##+=":22715,"##]),":17140,"advancing":22634,"accordingly":7427,"##utely":14787,"robin":29252,"##i":30109,"##dry":21499,"molec":1467,"(1.0":16873,"jer":14488,"immature":15464,"##‖":30203,"##english":28600,"##robot":28146,"ami":20901,"##(1−":9735,"research":849,"transplantation":7058,"pale":14557,"lai":19595,"##ost":404,"overwhelming":22954,"relevant":2884,"eing":15121,"fibro":6022,"bam":16489,"powder":10519,"vn":12437,"66,":25458,"accuracies":24033,"proliferating":23315,"##ugh":471,"coarse":11919,"vo":5034,"arizona":23371,"act":1438,"pruning":19442,"reflective":18861,"downregulated":18202,"smartphone":23096,"pco":27575,"most":755,"##zz":10207,"##hao":11290,"##erg":768,"##ulates":7056,"watson":18651,"##4.1":22535,"validated":7905,"sonic":16129,"amounts":5510,"##gram":10789,"[unused61]":62,"112":14357,"ov":5478,"##phone":8429,"##9),":6444,"##ostr":26985,"##iger":6585,"311":24821,"probabilities":6942,"ors":26951,"using":487,"kaiser":28986,"beneficial":7446,"2.4.":16010,"trafficking":16827,"quartile":24003,"##対":30803,"degenerate":18358,"balloon":16496,"events":2473,"stick":20361,"##197":22256,"graz":14706,"(196":8981,"fruitful":27288,"respect":2646,"##factors":21373,"##sat":16445,"majority":4185,"##-44":22366,"viz":22523,"depression":4754,"generalizations":27035,"[unused46]":47,"##anol":3656,"##sitivity":12158,"utiliz":24624,"yo":1778,"hart":13070,"quotient":16961,"##vens":18177,"##+1,":9310,"douglas":22856,"##.200":8911,"prentice":27684,"##bat":26970,"##prin":8370,"fatty":6462,"ex":199,"6.4":12349,"friendly":22435,"##recall":27029,"##john":27961,"heme":16957,"tsa":28063,"antibody":3582,"triglycerides":20427,"37%":28052,"orthog":7715,"0.78":18669,"enjoy":13902,"periodic":7564,"relation":2923,"subcar":18847,"7.2":10506,"schl":19354,"tant":29946,"##intu":28996,"cgmp":27647,"pneum":6335,"##roy":11661,"pieces":11796,"abstinence":28692,"##ethylation":28489,"##onitrile":15595,"linked":5094,"##2|":14421,"amenable":22823,"bae":27126,"##observer":22749,"1998;":7546,"adds":12806,"##varying":14696,"generations":11837,"##icidal":21847,"shor":5257,"irreversible":17253,"satisfies":6549,"arid":29111,"taylor":9430,"blots":18675,"bursts":19027,"primary":1916,"circulating":9630,"leach":24476,"wkh":27839,"mas":2915,"enrol":7093,"20:":22334,"poorer":15536,"fus":14259,"##delta":29011,"naming":21214,"##terson":26155,"iteratively":18755,"asa":21146,"##)))":17561,"##stack":24368,"grasping":28362,"##achy":11576,"##arettes":21627,"order":993,"alive":18592,"trapping":17929,"##ination":921,"##4]":3981,"pun":11215,"##odynamic":7733,"dioxide":14506,"##avirus":13486,"canal":12613,"troub":22341,"##timulation":27512,"digitized":26716,"É":22763,"##문":30960,"budgets":28754,"##itten":3616,"[unused87]":88,"perception":6028,"hypotension":21983,"accred":23748,"##ko":5635,"(+":14554,"glasgow":26195,"319":24832,"interactive":8091,"317":23517,"deuter":26210,"nephrol":27587,"##hrung":21462,"gleich":18759,"repro":2982,"poc":28458,"oce":7636,"circum":5611,"dispersive":27507,"##enge":4612,"##8],":10257,"conflict":5511,"unit":2515,"epidemiol":21956,"15)":25032,"##patients":15476,"##1].":3729,"spss":13303,"−1":4551,"##kern":25725,"forsch":21773,"##hos":23693,"2008),":16267,"represents":3059,"adducts":25509,"primer":7388,"##uthor":13255,"##ophila":9725,"std":17346,"marm":28963,"multicast":14165,"noise":2654,"functionality":8578,"vacc":4439,"##bow":12171,"##+∞":29954,"mole":21191,"##01-":27335,"dmem":16922,"##,(":13195,"##agmatic":17593,"sung":27526,"mot":10587,"towns":21619,"##isible":19332,"tens":14250,"0.80":17965,"##umn":13560,"##wid":4256,"##_00":25978,"##chap":23482,"distr":7282,"declared":12927,"##ath":599,"dissimilarity":26180,"##34":2642,"##ologic":4154,"##platelet":23678,"##iss":979,"##issive":27182,"zh":3634,"glacial":27828,"##arded":10935,"##olymer":11847,"71.":27523,"cyclin":13383,"foam":19654,"##derungen":18963,"occurs":3517,"##ث":30734,"produced":2772,"conducted":2728,"##qr":11341,"tryp":9477,"rom":7506,"##nad":28915,"##-50":17289,"##ressively":13551,"##hz":3051,"##=(":21557,"##particle":16321,"3":239,"sensed":24289,"day":2181,"##kir":24184,"gels":11501,"dirichlet":22389,"intraper":16120,"##——":23594,"##uni":14841,"##onic":1250,"undergoes":19017,"τ":2699,"polarized":14146,"instrumentation":15754,"##lea":27481,"[14]":8000,"-0,":29922,"anaesthe":12306,"spermat":19013,"brachial":27582,"pink":20410,"fluorescent":8273,"jp":12729,"[0.":22042,"##clus":21845,"0000":27180,"shading":27045,"subspace":11543,"1997":10812,"fraction":3160,"##how":10645,"##posed":3846,"subtle":13508,"rhythms":23511,"##ψ":30228,"obey":27178,"##tigkeit":29267,"unilateral":14986,"129":13100,"##dong":23582,"##ulators":12037,"providers":7739,"genera":15177,"sounds":14053,"##ario":10362,"wound":6953,"ancestral":20432,"mems":23060,"2;":11642,"##opo":9969,"argument":5618,"##ypt":5654,"ctr":21154,"##alities":7000,"emg":16560,"##timate":11734,"1984;":17772,"##ocks":3508,"##ills":30059,"copy":6919,"labelling":19634,"##si":215,"notch":12858,"##ests":1499,"##violet":17665,"##Д":30931,"eastern":10309,"reconstituted":24950,"##nen":9900,"##℘":30682,"scavenging":21550,"hf":6901,"##igr":2779,"arbitrary":5765,"[46].":25344,"ubiquitous":14988,"##onine":20447,"northwestern":27488,"analytically":18352,"egg":6913,"progn":5206,"important":1060,"⎟":14623,"awa":7306,"interven":4742,"attainment":22034,"num":541,"west":6697,"##ot":184,"bundle":11086,"are":220,"##icc":19167,"##ichlor":24867,"trim":9928,"perin":15788,"imperial":27524,"##1)(":28048,"septal":22102,"##oz":9627,"##teral":20251,"mantle":20780,"##embr":20173,"motone":27324,"described":1356,"edition":12154,"##ø":30338,"##án":11320,"quadrup":17861,"lg":8900,"##:4":8639,"(1.2)":26495,"##×10":12958,"code":2737,"##Z":30661,"probable":12624,"quickly":7493,"##onset":17014,"ren":4552,"sumo":22320,"inserting":19196,"mitogen":22113,"discard":21350,"pell":29882,"##ents":298,"incorrect":10883,"robust":3701,"(27).":25213,"##beam":18839,"##ff":274,"54,":20782,"shoot":14060,"(3":939,"shen":14210,"dropping":22802,"suz":18375,"partner":9138,"reactivation":24114,"surface":1437,"nearby":13794,"conflicts":8789,"hern":23860,"tal":6031,"einer":6246,"memorial":25505,"##ylvan":15751,"##inite":6201,"drawings":27486,"restored":14646,"phosphorylated":12602,"rea":28819,"326":25201,"ir":1622,"toxicities":25162,"##ref":6261,"##ulatory":7655,"idios":26690,"ation":17943,"##atable":22354,"##uria":11029,"mhc":12942,"diffraction":10314,"193":12117,"##otically":13847,"nanocrystals":29223,"antibiotics":9307,"##uron":11552,"intro":1205,"thz":23267,"##umes":18117,"their":547,"##–32":22979,"faculty":7249,"approx":28623,"thrust":22543,"compres":26619,"##crib":5140,"bonferroni":19299,"phosphate":6552,"##hips":20370,"0.1%":12471,"##edes":26599,"##omorphisms":20903,"aod":25247,"##rer":6397,"transition":3101,"##kg":3470,"1,2,":18716,"##ophores":20580,"##ees":5507,"##rot":7040,"16].":29926,"vill":9004,"distorted":18799,"##.20":11578,"proteolysis":25065,"##..":242,"##leit":24239,"proposition":4103,"accur":1712,"sperm":6619,"fon":29050,"##ozygous":9944,"##mark":3666,"1500":15422,"assemblages":26561,"##umber":18461,"##7/":8004,"operations":3878,"schem":1820,"##inescent":24996,"vivo":3570,"##49":4669,"extensions":11087,"##32.":24647,"65.":26060,"##thon":20719,"nonex":26199,"visiting":20241,"##beh":25244,"einem":10478,"##fel":21928,"august":5714,"##neighbor":25472,"pyl":12621,"139":17185,"ai":4725,"restric":2706,"##environment":13795,"7.4":9029,"tendon":14765,"pcs":15274,"##1.1":14635,"##ilibrium":16095,"fibrobl":7902,"##ectiveness":4397,"##2/2":21534,"hospit":7476,"2007)":13724,"##6),":4895,"epis":6758,"bread":16310,"##estradiol":27428,"##definition":29454,"[12]":7449,"int":391,"elegant":24520,"converting":18168,"ques":1646,"pursue":19888,"ev":403,"vasoconstr":23531,"progression":5010,"paulo":16946,"##19].":24702,"##weight":7111,"##oci":618,"academy":9699,"##azole":7672,"##emic":3414,"holds":4827,"opportunistic":19436,"solvers":23812,"profile":3822,"wishes":23143,"amyl":27078,"##positions":23791,"phosph":2017,"mor":1310,"##party":20329,"boiling":24456,"##요":30945,"murray":20525,"##行":30581,"1)":1776,"conve":5608,"exposed":4724,"##ader":21973,"xij":29738,"nick":13683,"regenerative":21318,"##iazep":25254,"##–(":18528,"help":2279,"12%":17465,"learner":14850,"hydrocarbon":23498,"##jac":25423,"cav":12289,"refriger":29558,"story":10512,"sl":1252,"##effects":17211,"practiced":28371,"##gly":6601,"empirical":4808,"imagery":15774,"illnesses":21136,"fermentation":14603,"##multi":12329,"##ib":389,"mask":11660,"04":12084,"##enty":7910,"##ophysical":29354,"[3]":5758,"##target":10093,"motivate":22847,"ug":8966,"acquisition":5187,"##oring":4343,"language":2647,"polymerase":8615,"##2}":20923,"conferences":22514,"certific":14516,"##roni":17173,"beobacht":19618,"neutr":12682,"##aul":12105,"complications":4929,"##–23":19283,"leb":29651,"cfa":29923,"##icians":8371,"benchmarking":27916,"##ral":3037,"motif":10066,"18%":22375,"tongue":17589,"##acles":12429,"speakers":13262,"join":5563,"consumed":10440,"cine":28286,"coe":18851,"exon":10906,"##df":7385,"700":12778,"##24].":28217,"##ities":1003,"nim":24852,"objects":3200,"counterparts":12917,"##der":343,"complaints":17999,"optics":14205,"alter":4222,"##lage":22405,"misc":19360,"gab":7394,"##between":16977,"##oles":2508,"##quinone":26357,"omit":18338,"highway":23147,"##bo":2209,"[199":22519,"at":235,"##tible":14184,"##apia":30088,"##⌋":30526,"imports":25930,"situation":4001,"##interpret":26335,"##及":30801,"##luc":12906,"will":650,"spans":22740,"environments":5097,"legis":10596,"##.(":9510,"block":1984,"tage":24644,"##owski":10497,"##oxifen":20498,"##원":31001,"pertussis":29903,"twitter":19966,"included":1936,"##hae":26406,"##orient":6944,"##erosis":11110,"##cu":8594,"##308":25296,"##mes":8608,"counterpart":16128,"##ope":2823,"decou":16261,"1993":14274,"339":25413,"societies":14338,"ya":18051,"cohort":5055,"modeled":7180,"impaired":7090,"##rem":3389,"##ysiol":19187,"cy":834,"##dir":28717,"##iou":24270,"ets":21852,"saf":3625,"ges":6194,"managed":9651,"comprising":12201,"portfolios":28688,"##ordon":17159,"ppi":18253,"authentication":10922,"wildtype":24983,"##/24":26891,"oils":19486,"##$":30208,"dealt":19651,"ei":6782,"##,2":9361,"##ṽ":30458,"##̇":30283,"99,":27873,"##41,":25940,"erup":20763,"##.13":9765,"ret":1318,"cz":11664,"rq":17527,"sert":27638,"##roscope":28969,"##测":31072,"##aching":3797,"650":21629,"revascular":20009,"davis":12763,"##rob":11345,"##oxide":5748,"traits":7378,"video":4081,"83":8462,"##organized":24410,"seg":2169,"acad":3514,"overlap":7209,"herbiv":20565,"eryth":8154,"incenti":11855,"##ttes":20592,"(25)":13129,"om":3751,"neurotrophic":29201,"(<":11068,"complement":4662,"##rl":14318,"videos":13572,"##ografts":20598,"oligomer":23639,"vocational":28832,"tit":5387,"##3);":20422,"jacob":13079,"##transferase":13132,"blend":22988,"600":8036,"obsc":17616,"alcoholic":24502,"-2":9929,"guidance":8646,"kinetics":8391,"8.0":16502,"##adrenergic":21032,"##induc":14800,"##ени":24670,"swallowing":27593,"v":171,"##oman":8836,"##cognitive":20698,"##M":30333,"noting":12871,"ophthalmic":29264,"hig":848,"status":2726,"permeation":28824,"##oresis":9479,"##度":30572,"predic":1124,"quoted":23644,"##trans":3071,"|":885,"##sia":4894,"##coma":11867,"zellen":22977,"##mann":4203,"15":884,"brother":24171,"##')":17673,"vortex":13815,"suffer":11687,"epochs":23404,"##35.":27977,"##sta":20006,"##ihood":4909,"cobal":21592,"ik":8618,"##reactive":15395,"rf":5028,"witnessed":28685,"antibodies":4041,"##theoretic":22490,"dri":2237,"tune":22020,"mw":8216,"interval":3191,"concentrations":2347,"##р":30286,"invisible":27095,"##ises":3476,"##amins":21698,"4.5":7087,"subsid":16263,"aspir":8824,"typed":24063,"##oders":26420,"excellence":19616,"districts":17618,"pace":19153,"172":23727,"allosteric":29167,"##ni":4564,"##osh":8898,"tempt":26613,"##ferenti":9424,"##shaped":11001,"unreal":24825,"##duction":915,"##log":6005,"module":4912,"morphometric":27364,"flexible":7047,"##1,1":28293,"hn":11063,"those":1052,"serot":12975,"##127":19630,"prospects":21797,"##trate":23125,"kim":6128,"kiss":29064,"dispos":14294,"adren":26330,"##방":30956,"##ationally":20630,"games":8472,"·)":25380,"astrophys":24227,"##paign":10867,"##blue":13516,"transcriptase":20759,"ovari":8106,"##5.00":12609,"contex":8270,"##formations":20127,"microbiology":12423,"##coding":13502,"sn":2308,"renin":21482,"tracts":21925,"estate":26368,"##omavirus":26937,"resol":7300,"41,":17348,"candid":3629,"reinforcement":14440,"##ya":6559,"destabil":20401,"nest":10890,"timp":28643,"upregulated":13299,"nominal":9824,"variance":3908,"##C":30389,"metast":4252,"kay":21524,"##42":5337,"##16].":22788,"##ectomized":29552,"##コ":30979,"##ery":2866,"amd":21401,"##loaded":3864,"##idazole":17429,"##uker":20602,"disturbance":9416,"causing":7879,"0.97":17659,"zeng":27947,"destructive":25014,"neuroph":15763,"development":1120,"title":10037,"1–3":25457,"victimization":29742,"res":218,"documented":7618,"##.[":6790,"##ic":141,"notations":17409,"sulfide":26325,"lexicon":23372,"thai":29358,"purple":24784,"⋃":17758,"wein":13491,"provincial":23805,"situations":5793,"67%":28690,"decode":26255,"##aient":29900,"gele":26193,"vaccination":10079,"##ozyg":7497,"mcd":15383,"##ität":15696,"##main":14502,"##rights":24609,"ninety":27845,"fal":4420,"dal":10902,"boul":27313,"equivalent":3552,"##220":26021,"outcome":3095,"recommendation":10501,"kath":27143,"affects":6354,"##rank":11589,"planted":27755,"enhances":11271,"scre":14097,"##reb":19215,"##}":30176,"attack":3689,"ox":1502,"resident":13816,"suppliers":17199,"splice":17594,"##horiz":27383,"periodical":26162,"livestock":18262,"rostral":29071,"ã":15380,"proliferative":16461,"sher":16389,"##.57":22437,"lle":24567,"gaug":24507,"dual":4793,"avail":1256,"procedure":2272,"##emics":26633,"##ged":6097,"minimized":13922,"deer":23058,"##⎭":30730,"jes":25144,"##acial":7028,"##aling":4202,"##mmol":20470,"##actor":10343,"##acqu":21179,"compromised":15463,"##tific":11806,"##ów":26896,"##チ":31083,"##variant":13320,"##9.0":15104,"el":847,"2012":4950,"recruit":6761,"(19)":10386,"##quet":20091,"0.42":25078,"[24,":22162,"##case":8771,"##Н":30678,"aluminium":26108,"##frag":24139,"dmd":29665,"hop":6872,"##◊":30987,"##anc":792,"pres":430,"##essors":22632,"farmer":24830,"them":1445,"adsorption":8358,"elsewhere":9781,"##ocyst":22409,"submit":12245,"centuries":27232,"covariates":13229,"liber":21000,"traditional":3783,"danish":21220,"differential":4031,"##viral":12211,"vc":11526,"lateral":5043,"##creativecommons":14810,"certification":20390,"ignored":13447,"##asia":15373,"vomiting":18644,"generally":3013,"discern":18680,"typical":3790,"assembly":6530,"##arrhyth":29965,"##─":30709,"hypothesize":18733,"enroll":15180,"plasmin":21758,"##march":25925,"##measures":21883,"##-58":29471,"prepar":3691,"##bour":12597,"clostridium":28350,"##sc":974,"##brien":29010,"politics":15637,"associates":15371,"397":29872,"predis":14152,"conce":9109,"##mi":5526,"opportunity":7336,"clinicopath":23487,"##zm":24443,"injured":15954,"##cloud":29093,"##aham":14968,"realtime":27429,"innate":12555,"liegt":27502,"##В":30664,"incongru":29934,"##386":25735,"nite":15182,"angiogenesis":11948,"recomm":2912,"##conditions":25266,"tunable":20788,"##rens":11839,"##kow":25389,"[unused4]":5,"147":17018,"novo":14030,"framing":22174,"preced":6864,"##alli":24403,"moving":5492,"osteosarcoma":28818,"seine":25420,"##clean":29356,"##negative":5986,"stereo":17052,"diph":22230,"farther":30038,"##etal":4849,"centrifuged":11171,"normalized":5360,"##more":2156,"6∈":26015,"1975;":29146,"microarray":11259,"bpm":24910,"dox":12022,"fgfr":25068,"syntax":12005,"transfusion":12601,"vorhand":25256,"priming":15624,"##ordinate":18147,"transferred":6388,"phyto":14432,"walls":10564,"radioactivity":19902,"tells":20979,"##azu":25166,"uganda":26102,"attenuates":27467,"##commer":21077,"##factory":14110,"timescale":26478,"320":17167,"##iform":3171,"adjusted":5731,"tect":23345,"##cation":9134,"dispar":13219,"medullary":28594,"ast":3792,"4-":5424,"concluding":16546,"lex":8059,"beiden":21816,"catar":17864,"terror":20593,"quarter":11124,"1400":27357,"centim":29988,"##ulti":24102,"companies":6724,"psychol":21013,"imprec":22639,"rehabilitation":9539,"##sym":17330,"##❡":30535,"reimburs":27084,"##-26":15895,"anchor":14491,"command":9683,"confound":9899,"send":7914,"##ли":24530,"vec":22166,"surrogate":16541,"opaque":27341,"elucidate":14579,"pa":904,"globally":12733,"##da":2526,"spiking":26107,"invas":4850,"ét":13605,"##dcs":27912,"don":3313,"seeding":24301,"practitioner":20125,"weigh":16732,"##end":372,"aspiration":17058,"##ymph":2832,"unlimited":26053,"converging":26005,"(0.3":23047,"##august":28340,"matrix":1754,"wnt":12157,"fifty":16397,")2":12174,"pp":1679,"invent":8286,"iia":25285,"delib":22558,"spines":24455,"##squared":24050,"##olet":15309,"##resolved":16332,"renormal":19884,"##arent":4307,"##bn":6605,"(32)":16817,"pour":10104,"##otype":2665,"cows":15627,"2001":8293,"wij":26692,"##whitney":16528,"##alg":19711,"turned":11096,"meant":14231,"texas":11679,"##....":358,"solvent":7200,"plotted":8548,"dict":14815,"##buffered":18327,"pain":2675,"exacerbations":29939,"##nex":25498,"##asticity":26887,"##join":20675,"89,":29759,"cnrs":29357,"zusammen":20643,"barri":4867,"##ilia":29515,"##ve":175,"kernels":15626,"sympos":10491,"osa":19418,"sant":8366,"298":21451,"lhc":27107,"##160":16955,"schul":19804,"##1,000":29731,"##ostatis":26953,"##ti":113,"conceptually":22839,"oc":2831,"##发":30879,"##elen":16615,"defe":22541,"##ocellular":15391,"decisive":29293,"##university":13015,"##comp":4660,"refe":18825,"##).":226,"##1-5":25614,"ascorb":18165,"##grass":22881,"antico":14019,"geophys":17690,"[27,":24886,"##ige":8082,"nk":7119,"##)|2":23747,"##ahara":29985,"lie":5631,"cosine":20340,"affairs":16758,"slight":3446,"hetero":29332,"##∨":30320,"perturb":5825,"epidemiological":12713,"76":8116,"characterised":16488,"##ivalent":13833,"##––":16902,"##stell":13953,"##40-":29974,"##5(":23862,"airborne":22681,"##ostat":18421,"fluores":3328,"infras":6361,"occurrences":16273,"experi":1852,"##ship":12189,"##5":30139,"##ever":673,"sag":12250,"##low":432,"remainder":11336,"1999;":7309,"1),":6715,"obstructive":15756,"diagnostics":14405,"∃":15764,"##算":30833,"real":1332,"##ativecommons":14128,"optimized":7150,"kinases":12172,"##vation":8702,"##.45":18668,"rounded":23239,"dn":7230,"32.":12196,"##borg":26641,"84":7916,"[45].":24637,"alan":24346,"creatinine":12627,"nie":10660,"pipette":26299,"one":482,"##validation":19817,"exposing":25861,"automated":7771,"efficacious":25863,"##aterally":21167,"1977;":26003,"##8).":2234,"##ν":30221,"nanof":28192,"arrangement":11265,"mixed":4055,"total":1114,"accession":11916,"##-67":20883,"stage":2410,"atr":17827,"(23":19222,"##magn":21559,"##oxidase":23810,"mast":12277,"probabil":8482,"alongside":21825,"sink":13341,"captured":8026,"terms":1615,"##ayers":12661,"##cys":17727,"##に":30347,"whether":1681,"##リ":30724,"[22]":11303,"bucket":26997,"kent":21791,"##)−":5082,"unknowns":28900,"kaz":19610,"16":1107,"##pressed":5334,"entire":3387,"cull":27408,"undoub":23362,"poli":4594,"carotid":11547,"codew":19194,"##bm":3819,"rituximab":25790,"opposite":6871,"1988;":14311,"alliance":19742,"[0,":6637,"neuro":2672,"epidural":22696,"alex":9363,"repeatedly":13939,"mek":22546,"##abad":29676,"sociodem":26176,"coordin":3338,"items":3945,"##ellow":5490,"##infection":13720,"perme":6824,"rah":18748,"0.90":17714,"script":14562,"promoter":5420,"airflow":27576,"predisposition":28502,"tuberculosis":9757,"(37)":19628,"snow":12346,"inform":3219,"##olk":25170,"ultimate":13762,"jos":16882,"##asmus":26016,"[UNK]":101,"stake":9908,"postmortem":28277,"accommodation":24882,"##ansen":19362,"travers":21757,"##tionen":25813,"fibrillation":15902,"search":2322,"##者":30636,"sh":272,"placebo":6680,"fabric":6154,"invariance":16450,"2010.":9032,"##available":14609,"immedi":3591,"coffee":17677,"(2008)":9662,"##orp":18144,"recently":2803,"way":1804,"scalable":14628,"predom":5926,"defining":7671,"0.35":14438,"##uin":19907,"discomfort":19388,"propagate":19089,"##8)":1537,"social":1748,"##cham":24824,"continue":6879,"##指":31049,"##ochen":17619,"coun":1821,"15].":29109,"1=":17153,"##igned":20442,"[27]":13692,"enth":21145,"instant":8151,"chair":12375,"wieder":15972,"answered":16399,"##lation":2195,"##itance":8539,"##age":342,"refraction":27833,"specifies":16797,"jack":10961,"##lay":15859,"fisheries":19126,"lym":21662,"gg":12492,"sees":20008,"##fc":6510,"top":1623,"##itsch":29885,"ams":22077,"comparator":25499,"##icos":22944,"compos":1986,"##gramm":21137,"##gaa":14061,"##Ñ":30332,"##1—":23020,"parametric":11252,"stably":19753,"##craft":11255,"predec":24373,"connect":11845,"##strain":22399,"immersed":20181,"##rological":17721,"##lected":26101,"3.6":12224,"##37":2986,"oregon":23061,"##cdcl":26540,"lymphocytes":9242,"deaf":21365,"crisp":27625,"parliament":26926,"testicular":20236,"##ðx":13451,"##omyces":22778,"adjustments":16275,"bottleneck":18264,"##μν":15881,"concaten":16386,"theoretic":25513,"vd":15009,"##nitine":29725,"##ometh":11593,"##comb":16038,"##idian":25455,"##eller":7799,"##bene":16980,"##0-":17833,"anesthetic":22255,"prime":9319,"made":1827,"elective":20880,"due":1074,"often":1992,"##enger":11966,"##rimin":7752,"##venue":9284,"heard":21181,"amplitudes":11109,"proceeded":25891,"##hec":28846,"accordance":7630,"offline":17150,"##ő":30589,"reprints":19113,"##thermo":22414,"advertis":10727,"jordan":18390,"[1]":5263,"flour":22363,"__":19393,"##kda":19218,"calcification":20473,"##ucher":22090,"43.":15628,"##.37":17181,"##krank":14423,"enzym":2444,"kpc":27826,"hypertension":5801,"##regions":27071,"battle":26290,"に":29559,"##process":5461,"##oelec":14270,"jacobian":22105,"reynolds":16901,"traced":21158,"indication":9911,"##vh":22308,"haw":17215,"abuse":8470,"##techn":13940,"##ische":7594,"##prac":21786,"##pez":25188,"##□":30627,"##":30776,"0.55":20856,"##/–":26763,"##eq":10661,"powders":28156,"##6.":1280,"##)‖":13664,"converged":26296,"antic":5163,"biosensor":29083,"φ":2194,"joins":28635,"##arth":9867,"absc":27632,"iliac":23790,"rose":12954,"......":7869,"##pas":17268,"gates":14830,"methods":1045,"##acer":7233,"##khz":30009,"strikingly":25384,"##来":30965,"coinc":7520,"gingival":21544,"aper":10069,"messaging":27956,"50%":5721,"methodologies":13142,"greg":22900,"yeast":7035,"sell":13524,"consul":16951,"##input":16243,"##т":30275,"tagged":18220,"pretest":29342,"fundus":27710,"##hire":27224,"##acr":4927,"spur":15601,"34,":16112,"per":309,"##ical":281,"ds":4415,"##ativity":9950,"raj":18775,"##may":12538,"##ely":550,"silico":25159,"multif":19886,"##ctc":19206,"heterozygous":15780,"reserve":12287,"##oin":616,"##fahren":22440,"##cop":1564,"attract":16619,"warren":28577,"ا":28795,"dyes":19270,"perpetr":29038,"##.41":21185,"gesch":16320,"packing":15481,"vj":14897,"serv":1218,"##olia":19123,"bacteria":4738,"sun":5614,"proximity":10635,"##data":5216,"##rophys":21423,"##8.6":20198,"restrict":12829,"##⎤":30376,"rut":15757,"eclip":24381,"bragg":26530,"1.00":10799,"incoming":12689,"shortly":17525,"##lived":19946,"thym":9427,"diagrams":10981,"allo":15031,"##(12):":29707,"otolaryng":30076,"##idone":20947,"junc":12304,"##+)":8166,"jur":11614,"supplement":2979,"##oflu":10199,"##":30871,"##-8,":27626,"##emed":14782,"altitude":15518,"##neider":17613,"asymmetries":27785,"##mhz":17021,"##ḟ":31043,"##.1%":11595,"##acc":2621,"##yal":7758,"ðx":26697,"gö":18867,"##ohl":12817,"coerc":24685,"##不":30679,"carol":13236,"metabolism":5009,"feet":17769,"virulent":28787,"affected":3407,"tss":25618,"latin":15586,"chart":11791,"decay":6465,"##icted":30077,"proteinase":25626,"bij":25052,"solvents":14656,"medically":29971,"programmed":16403,"##据":30942,"bond":3817,"##月":31089,"##tuple":29481,"9.":4057,"##imento":21199,"##maximal":25762,"##left":10549,"dub":12819,"##eties":13146,"##rh":4077,"referenced":22373,"approval":10192,"##119":21267,"substanti":3919,"##se":246,"schn":19954,"##ineral":27818,"##ondon":6579,"45%":19530,"adaptability":26930,"year":996,"feeds":24258,"1989)":27648,"perspectives":9788,"107":11143,"##um":200,"unions":24973,"##iceptive":23920,"##inois":16398,"negligible":9515,"kap":15965,"##–22":16433,"prof":1380,"##arbeit":24816,"sim":462,"treatments":4728,"equipped":9308,"csp":18305,"parallel":3098,"##ncia":15257,"##nai":26465,"veter":9638,"preval":3423,"beyond":4882,"everyday":15304,"##portant":26404,"ocd":27621,"incorporating":11628,"mosfet":29298,"enteric":20217,"bj":9611,"sul":9271,"integrable":24971,"##ringer":24475,"##elves":5181,".001).":27896,"##anium":14144,"promin":8156,"into":690,"##viruses":26700,"clearance":9746,"##arcoma":16789,"##ando":13085,"suic":10403,"(5)":4565,"ire":29059,"##.15":9403,"##":30686,"decide":10130,"##opropyl":19687,"lm":5330,"##sha":22269,"##qn":19051,"testis":19124,"##ago":7155,"combus":15327,"lymphoid":17108,"anticip":8909,"1994)":20051,"hmm":19638,"layer":2474,"remedy":27811,"highlight":8441,"competitiveness":23035,"mouth":12860,"##ère":15983,"islamic":27104,"ischaemic":27421,"##lor":2483,"scler":9518,"##amet":816,"##lane":18567,"tur":4011,"photograph":24039,"1978;":24619,"eventually":8113,"odor":15988,"79":8455,"##generation":11358,"##≺":30483,"miy":19122,"effective":2115,"##\\{":27307,"63":6729,"##vially":25241,"Θ":9854,"modifications":7551,"##sip":8703,"##run":11277,"humid":19033,"smooth":4264,"humidity":12472,"##hat":18349,"agonist":11561,"serum":2627,"arcs":14484,"deploy":6116,"##ators":1688,"##46":4412,"hydrochlor":17358,"right":2083,"##1−":10620,"sip":18533,"scratch":24423,"caro":8673,"##char":6039,"movies":25481,"30-":12283,"hist":1520,"objective":3201,"spikes":16568,"##113":22348,"##lo":609,"exponent":14258,"##ns":1290,"multipliers":23291,"fw":18654,"residence":15389,"8.7":25833,"expectation":9775,"##bet":15435,"##wild":27405,"##atever":15857,"##jp":11979,"menstr":19064,"1⁄4":2479,"accumulation":5091,"catal":5325,"microbiome":28793,"##luoro":25017,"var":7013,"##گ":30628,"ache":25322,"mds":19623,"mud":19402,"##nt":3372,"unstable":9825,"##äß":28941,"angiotensin":14927,"##게":31088,"##cht":10745,"paris":11854,"eo":16374,"pending":27851,"(1986)":21023,"rhin":19700,"xxxx":22442,"##–100":18632,"differences":1595,"##row":1606,"monit":7482,"1.10":27498,"peculi":18244,"##adder":7494,"##idine":5978,"rio":16718,"##arian":9371,"select":5470,"328":25956,"maj":19915,"##pool":22309,"thick":3383,"surve":2412,"microglia":17329,"separ":1769,"##]-":17353,"##ijing":12389,"elements":2419,"##uating":23687,"dimers":21387,"considerably":8222,"##1-4":28294,"current":1073,"##imide":21943,"conf":1105,"coagul":27803,"isomer":19261,"cryp":19322,"##were":11936,"##oxy":6312,"lymphatic":18836,"regim":4365,"##oshi":20998,"operated":11005,"forage":27552,"bic":8812,"##10)":11047,"maps":5086,"adjusting":11570,"annals":22318,"{1,":10556,"longitudinal":7051,"commut":13808,"##ist":383,"someone":15020,"concentric":26563,"crystall":6592,"thousands":14460,"93,":29573,"##atern":14795,"tung":21232,"primers":6966,"##thood":14923,"hrqol":24603,"auditory":9368,"##methods":24226,"programmers":24503,"predominantly":9446,"prohib":11141,"##◆":30781,"superiority":21809,"determines":8317,"##ф":30550,"participated":10209,"##obacteria":13603,"##tructural":22850,"166":18785,"shapiro":24818,"##kin":5011,"eas":1997,"accessibility":14099,"necrotic":20925,"macrophages":7054,"gcd":28967,"therm":2695,"##igg":19542,"entr":4634,"##:0":25310,"shut":15926,"por":2555,"1989;":13332,"##erated":6093,"##ön":29898,"##cm":2685,"2000,":9490,"criticism":21308,"parentheses":22049,"oj":24591,"sex":2649,"##equilibrium":28240,"##adaptive":17560,"##art":702,"##4.9":21231,"##̟":30976,"teg":25996,"controversial":14345,"couple":13012,"##snr":23436,"tum":1413,"##detection":25157,"##inet":20033,"##sthe":23814,"##-4,":18833,"##ud":245,"90":3289,"##raft":15955,"psychiatry":10310,"##ī":30574,"elsevier":7500,"coupling":4851,"pcr":3635,"architect":2917,"##̊":30365,"inactive":12444,"psychiatric":9333,"##associated":5956,"come":6096,"kh":9457,"projection":6815,"##70":2092,"typically":3915,"approximates":26981,"(250":28655,"+1":12322,"##ξ":30225,"treatment":922,"temperatures":5531,"ns":3281,"universal":7674,"squamous":14675,"psycho":20514,"readiness":27682,"engage":11569,"##nar":17386,"rearing":27054,"reliability":4817,"##reducing":26972,"##은":30634,"handling":8731,"stirred":16572,"##calc":13208,"fram":2133,"##ful":1004,"##.1).":26529,"##⇤":30611,"##ateness":26008,"##ication":1442,"vertically":18979,"zebrafish":15836,"##oun":2524,"##ham":5274,"actuator":15930,"sold":17922,"perimeter":26541,"stressful":22556,"##ante":11282,"adulthood":16460,"##apol":9637,"##zoa":18837,"authorized":17658,"atpase":19862,"##agn":1042,"bodies":8198,"chloride":9696,"carcass":23803,"##as":142,"##wy":25517,"##ovasc":23965,"composites":15563,"clonal":17809,"##100":3055,"##3-8":27807,"##tility":6066,"therefore":1104,"rus":7069,"##139":24145,"##ron":1809,"##ïve":19212,"##80":2043,"first":705,"occl":7601,"kö":14112,"islam":27440,"east":7805,"##後":30796,"endemic":17280,"unconstrained":24474,"brom":11011,"cette":22486,"impl":2420,"registry":12888,"handoff":29989,"pmol":19906,"outgrowth":23612,"arte":17947,"##osm":19889,"splicing":13718,"ga":3692,"amendment":23936,"correspondence":5457,"reorganization":23504,"missouri":27064,"##":31011,"excitability":22618,"plasmod":22260,"interpersonal":16115,"terminology":14571,"share":4456,"##mass":12303,"cryptography":22999,"##uvate":17187,"##ohy":8365,"##inding":1816,"##ala":6999,"cnv":29805,"multiplex":11824,"115":12645,"##correct":29269,"las":3033,"##myc":15290,"ham":4792,"##median":13988,"striatum":18015,"ost":15734,"imperative":19370,"assistants":27396,"responsibility":9945,"##uscular":12938,"hypers":15168,"label":3321,"schematic":11923,"##wis":11648,"##ycl":8107,"##finite":22901,"cystic":14497,"classify":11709,"##pson":10830,"##⋂":30549,"6%":16086,"glycoproteins":26611,"abstracts":17482,"optical":3451,"##hetic":16481,"peg":10850,"##ographies":28619,"ester":11353,"sri":18002,"respiratory":5580,"clim":4730,"sed":4648,"mittel":24313,"##93.":29419,"iris":16771,"##pca":22505,"document":3367,"1600":25158,"slopes":15150,"repr":29861,"du":3108,"govern":3141,"##mic":3004,"40":1921,"(3)":3012,"iterations":8525,"intermediary":30035,"dispat":27200,"dead":7344,"##otypical":25987,"##eff":1640,"mir":3076,"##sas":22703,"disproportion":21870,"paramet":998,"##fort":5061,"##1_":21821,"akin":29177,"##1/2,":28682,"recursively":20264,"foreground":19872,"heritage":23135,"##bf":9688,"nanopartic":5991,"emulsion":19030,"saw":10261,"##‒":30578,"speed":2747,"wand":23458,"##−1∑":14375,"oscill":4840,"5-":4363,"##epr":26820,"8.9":28882,"wenn":13898,"plays":5769,"concert":29685,"agglut":26117,"regards":14991,"##ging":6392,"opens":17647,"##gray":27251,"evid":9187,"##ẑ":30476,"variant":7002,"cool":6240,"robustness":8656,"pherom":19170,"##‐":30246,"scarce":18901,"diaphragm":23952,"##vive":14042,"stand":1093,"sps":26431,"##mog":21059,"dermatology":24998,"localization":5557,"ins":722,"arsenic":18103,"(19":994,"##iere":29187,"ligament":16305,"reduc":2387,"##量":30655,"weite":17154,"##fis":18409,"##js":15456,"##ě":30577,"similarly":3453,"descriptor":16843,"diss":2681,"##oma":1989,"directly":2533,"##bl":1727,"##istan":15388,")|":26056,"&&":29919,"outage":20980,"316":23781,"##-46":25882,"minimize":6600,"failures":10038,"pw":10470,"ine":24198,"mf":8683,"##astr":27513,"param":14027,"worth":7441,"〈":4388,"aca":26083,"subcellular":17992,"1978).":28958,"##chart":25408,"##igible":27108,"##pressor":29575,"−1.":24036,"nitric":12345,"io":4478,"actually":5077,"initiate":13627,"incision":13825,"##pro":362,"##inhib":15735,"##tized":9453,"zhao":12633,"##bler":27268,"identifiers":21595,"2001.":10180,"gondii":29930,"##45":2548,"omm":29324,"testing":2712,"pyrolysis":29864,"importance":3243,"rac":10837,"##pc":3808,"ves":6099,"initiating":18054,"sirna":10142,"shrna":21092,"##ococ":11514,"therapists":22429,"##0(":5151,"albert":24019,"##uing":9106,"##ophenyl":25879,"query":4325,"catalytic":8741,"##agne":2492,"##:2":9938,"alcohols":26521,"sage":20107,"glioblastoma":24699,"branch":6421,"tracer":16551,"##3.8":18753,"##Þ":30201,"plants":3528,"2003)":14398,"carbohydrates":20667,"222":21879,"##aqu":28449,"overlapping":9759,"harder":19045,"verlag":16045,"scans":10143,"contains":3017,"rural":7046,"##idad":11093,"date":4282,"##an":133,"throat":27757,"healthy":4093,"dollars":21038,"calor":14463,"##];":12120,"bey":4769,"##rap":22165,"columns":7510,"pleasure":25660,"##zyk":26487,"##daw":24549,"interfer":7820,"fused":13796,"stark":13407,"preferred":7361,"##eye":27930,"##nik":12912,"5),":17375,"verschiedenen":27725,"77.":29755,"causal":8409,"##tipation":28739,"##inal":739,"steroids":16235,"acuity":17407,"depolarization":19342,"(&)":25924,"##hcv":28929,"absor":14821,"peroxidation":19093,"hue":28581,"##hil":26369,"(2005),":25538,"respects":23255,"##psy":9947,"deb":6304,"aeruginosa":14984,"##1-3":24892,"≈":6874,"proz":27768,"mediast":22702,"came":10425,"evaluated":2840,"##25-":29375,"##w":30128,"homolog":11599,"cosmic":21450,"##hybrid":20650,"polyvinyl":28803,"patch":7940,"##ع":30488,"antipsych":19150,"arabia":27738,"digiti":18530,"bending":13323,"association":2274,"##imers":24168,"##responsive":15073,"former":6347,"##emp":16319,"interpret":3526,"correspond":1171,"disag":12192,"chemokine":18885,"isolation":6141,"##chan":22210,"##fts":26002,"approximations":13355,"cardiomyopathy":18858,"uz":23690,"sugges":7362,"1995),":22313,"##ware":1526,"nitrocellulose":26729,"cantilever":26308,"das":3647,"educated":21545,"escape":13369,"##jk":9893,"topographic":23830,"2005),":16007,"collections":13257,"during":781,"microorganisms":13138,"isa":20224,"pathogen":9293,"cloning":12926,"erkrank":21770,"##,*":20223,"##ción":21091,"dodecyl":25118,"james":11952,"broadly":13771,"##ogeneity":5706,"preventing":9778,"##orin":29297,"illness":6896,"urgent":18838,"##⇐":30531,"##時":30816,"##相":30727,"ontario":16135,"sha":19535,"engr":22871,"##atives":3283,"##cohols":25643,"##":30771,"##112":12950,"infant":9468,"substance":8851,"##onau":21965,"rather":2316,"##izer":6835,"fit":2471,"##ushing":22615,"possesses":15693,"yok":25109,"tlr":10013,"uro":17970,"eb":7147,"##farm":29728,"other":494,"directing":29951,"##uxim":19309,"##ami":8269,"allows":2890,"commitment":10442,"##omial":4025,"0.45":14755,"och":18379,"valued":16897,"18":1178,"engine":2393,"tinn":29470,"turbine":16985,"##erce":20868,"expenditure":12667,"##tub":8263,"extra":5711,"workers":5555,"88":8203,"ling":21468,"imprin":22288,"operating":4527,"##deg":11416,"contribute":4362,"transi":1924,"##wage":23120,"cro":6646,"##eting":29101,"##omethacin":29840,"##パ":31052,"gray":8087,"ancestry":29184,"obl":13470,"##149":24538,"hba":17194,"erfol":17049,"##aussian":23761,"hb":7009,"hamburg":27585,"##een":444,"##ontally":23489,"altogether":17349,"(*":23250,"##ression":1825,"##pone":9701,"##lux":9381,"85":6885,"410":25769,"##upta":16769,"canonical":9392,"contaminants":20050,"suited":13022,"pseudomonas":16949,"apex":16872,"##emens":24056,"##udes":3980,"imaging":2918,"focal":8512,"(36)":19265,"υ":23529,"##architect":23670,"##デ":30759,"requ":743,"##ctg":16791,"##cens":22057,"lining":28737,"##modules":24752,"honey":15984,"correction":5799,"cing":21749,"##tic":204,"lup":14266,"weaknesses":20916,"1994.":13990,"##~":30160,"imf":24640,"##afted":19470,"invention":28364,"conclusive":28768,"geographical":11455,"arachid":29247,"##89":5684,"##seh":15157,"sensitized":29634,"72,":24672,"carry":5306,"transforms":14776,"##xm":17160,"unde":10318,"stroke":5177,"zheng":17046,"cascades":23959,"##lices":9085,"percep":25871,"##isson":9674,"content":2118,"demonstration":12415,"locom":12838,"realizations":22683,"apnea":23664,"outperform":21198,"scatter":12887,"requi":853,"body":2160,"##oked":6737,"##analysis":6520,"irrespective":14387,"##gb":11652,"angiographic":28087,"propositions":17277,"nanop":5582,"##emann":11346,"universities":13184,"##onically":18983,"independence":10988,"tc":6168,"##2[":22385,"fiscal":18078,"volati":8413,"assoc":19727,"36":3204,"cdr":27121,"viet":19683,"portion":6492,"prostagland":18898,"(1981)":28089,"downward":16978,"round":5194,"##tured":25530,"##cepti":4892,"[35].":18085,"versa":14140,"univer":8230,"give":3226,"pooled":10629,"3:":6854,"germination":16171,"##barr":29871,"##olesterol":5913,"path":945,"0.08":13539,"##olesterole":27969,"recommender":28309,"erad":21584,"##south":26661,"dwell":23694,"reflec":2139,"##ш":30605,"attem":3636,"##positive":5293,"##pw":26017,"##18.":19543,"computerized":20455,"##biology":28942,"mcdonald":29230,"##graph":5341,"##need":25932,"irradiated":15499,"oldest":25107,"##dv":14168,"kato":29896,"abelian":19495,"##odynamics":15828,"faec":16530,"caes":26509,"##enhanced":15931,"##ocl":5766,"##solid":17366,"constructing":11960,"employees":8827,"##azz":28865,"(1,":7597,"inhaled":21654,"cardio":25043,"##visible":29877,"po":1494,"38%":27990,"##plosone":15088,"favoring":28782,"occasion":11736,"least":1823,"50":1539,"##friendly":20233,"replace":9450,"agents":3027,"bruc":27933,"##occ":5261,"elections":24109,"##ف":30499,"mci":21018,"##»":30310,"york":4811,"mutational":24327,"lighter":28752,"##2=":17227,"anonymous":13751,"##inking":24215,"represented":3716,"editorial":15679,"immunore":12734,"##ée":11042,"synd":3770,"##gs":3940,"baker":17354,"##find":17632,"quoti":15176,"myofib":26685,"nonlinearity":18221,"proportion":4079,"0.13":12725,"##focused":26500,"web":2987,"##24.":22315,"1.15":28400,"(2004)":9733,"##ibles":29524,"opposing":21284,"glomer":11144,"[12],":14218,"##drs":24324,"sang":20546,"##thirds":26805,"##acts":2476,"##illing":7631,"##invasive":11950,"enforcement":15845,"prospectively":19930,"##density":11888,"##otoxic":17275,"dram":6868,"##adian":8477,"threefold":28965,"zusamm":13761,"##critical":14818,"elongated":21748,"asym":3575,"abnormality":18539,"confer":13668,"clutter":24037,"explanatory":15132,"genital":17472,"principle":5137,"natl":10320,"coefficients":3960,"summation":16078,"não":21335,"##anç":19823,"1/2":10050,"protecting":16993,"up":692,"pe":920,"folding":13019,"summarizing":28071,"prognostic":8622,"neutrophils":12311,"tubular":15174,"meoh":24295,"##oprote":27460,"multiplic":16626,"##associ":5495,"##und":332,"cowork":23402,"daf":21953,"synthesized":7320,"##ど":30826,"bot":8786,"motivation":7511,"allocated":10811,"vaccinated":22965,"##proced":23383,"##acheal":26036,"fertility":12508,"##1)":838,"denen":22303,"studien":28419,"##ont":1964,"aus":3844,"##•":30186,"uncertain":3511,"dominate":17893,"responds":21177,"continuous":2668,"disciplines":15625,"clothing":25552,"##9].":3631,"[7],":12229,"saving":13873,"[2].":6503,"##.3%)":14860,"regardless":7161,"burst":10531,"##„":30325,"ww":2871,"decarbox":28553,"##х":30437,"upward":16352,"abund":4500,"##−→":12701,"##134":23598,"epstein":24163,"gait":12173,"lean":14872,"fetuses":23590,"shin":18030,"450":13855,"##plan":11691,"##ich":294,"##44":3875,"inducer":30028,"phases":5497,"bile":11994,"cyl":8162,"##text":8999,"microsp":18094,"theorem":2265,"##imension":1582,"##build":17512,"309":28922,"÷":26708,"##illary":5990,"northeast":24994,"preserving":14321,"biochem":11071,"##176":24669,"##affected":12520,"adoles":5383,"(36":24883,"style":9702,"##vinyl":21600,"summarised":27016,"hints":29451,"##itably":21732,"discriminate":15334,"component":2332,"##arter":20703,"exceeds":12566,"##̅":30615,"pharmacol":15424,"64,":22484,"computing":3743,"illustrating":22244,"2).":3500,"##ст":14225,"anticoagulant":24933,"##istered":4514,"##osa":4591,"output":1892,"reduction":2135,"##each":20826,"##数":30566,"##aphr":16108,"extrem":4847,"##ijk":17741,"##↑":30398,"##social":19386,"##thrombin":25191,"##yz":24813,"april":5442,"volunteers":12125,"encoder":17932,"##lect":5929,"##sal":10680,"glycerol":13045,"dpp":21375,"##ą":30444,"psychopathology":26350,"consistently":8137,"importantly":7857,"##22].":28497,"default":8728,"albumin":9804,"additionally":4782,"bugs":25081,"controversy":21908,"<0.00":14414,"morbidity":8860,"expressing":7038,"neglected":13592,"testic":18935,"##中":30519,"sure":9552,"hyperten":5128,"incomple":26415,"legitimate":18575,"10.10":8921,"##stadt":26683,"texture":8690,"##stop":21636,"=1":23857,"hapl":10108,"##rac":12132,"##sover":12655,"benthic":24856,"fires":24422,"##aren":26105,"##2),":3172,"main":936,"eff":396,"##tened":27932,"erp":17055,"surf":21614,"kend":29279,"##icion":21131,"##romagnetic":21068,"##2,":721,"myers":27904,"aic":22400,"##aded":13504,"##99.":27793,"type":1211,"##iehen":21057,"eth":2311,"latex":26204,"##umer":22742,"deciding":18428,"perfused":20802,"[15":23942,"rendering":12944,"puncture":20633,"##eworthy":16515,"administrator":23131,"##16.":17895,"##heter":19277,"##arrays":21644,"2006),":15950,"##≻":30753,"voxel":14773,"##hd":5912,"##plied":14637,"##oal":28697,"##atized":21783,"##integration":20973,"analysts":21926,"venti":8256,"##adelphia":17737,"gynecology":26508,"legend":20696,"forecast":8976,"##⇡":30963,"heterod":19022,"deox":28687,"achievement":11802,"cim":24639,"##ack":525,"##è":30260,"##ensors":19613,"comes":7076,"##wick":11348,"measurable":14031,"##υ":30410,"cancell":14498,"##機":30941,"##ozyme":22098,"discretization":17726,"ĥ":17773,"##=0.01":28252,"2003;":6178,"07":12569,"##ação":10809,"##feeding":14191,"priv":3694,"##roth":29562,"##im":163,"2":170,"earl":15035,"exchanges":18719,"thoughts":16941,"unfold":13727,"prefet":26452,"##lished":1636,"abd":12378,"snake":23941,"10.1002/":18577,"aliqu":13174,"lifting":21193,"alto":27323,"##ether":12896,"445":29594,"##clamp":23141,"magn":2701,"##0.5":8495,"unwanted":20628,"stones":24127,"emotion":8985,"12-":11027,"intuition":13760,"nebr":27844,"##/$":9348,"vena":28582,"##artan":19337,"##73":5145,"coworkers":24298,"acquiring":19264,"##ore":257,"disclosure":12807,"consensus":6921,"##iq":20364,"streaming":15496,"##tot":26528,"blended":29870,"practition":9264,"monocyte":19576,"##š":30360,"ØØ":23230,"dirac":20007,"##six":17128,"1985;":16984,"##:10.1038/":18481,"hindered":29748,"##opres":25088,"##유":30881,"##phosphorylation":24213,"worldwide":9820,"##mek":26311,"[25,":22721,"##)4":28170,"##iable":10599,"##iten":15225,"247":26034,"##":31024,"everything":17156,"##factor":9537,"behaviours":13765,"##uzzy":28603,"quantifying":19294,"10.1109/":18565,"gentamicin":26504,"contrac":9406,"deterministic":9580,"diploid":24080,"##与":30698,"resides":25427,"eosin":11304,"entertainment":27505,"32":3291,"Ý":28747,"kv":9881,"26,":10784,"##etes":3300,"space":1630,"improvements":7017,"rdna":22747,"##ález":29484,"direc":1890,"2017,":13654,"##断":31040,"##scs":7679,"##ken":4474,"devoted":14443,"##kine":24749,"labels":8855,"institutions":7238,"anomalies":12285,"3.3":4775,"ja":6837,"disadvantage":14842,"##locked":25146,"hen":1951,"bre":1629,"neph":7985,"##entin":28590,"##zek":28987,"##&)":22662,"##ardo":18763,"dosage":12341,"life":1994,"january":5376,"something":8973,"(0,":6766,"modify":9676,"schiz":8024,"##space":5923,"##hg":7778,"symmetry":6650,"philos":9008,"##round":1335,"##pic":14117,"ly":4732,"substrate":4061,"##-16":11022,"##ensing":16123,"adap":2061,"##ategory":4453,"entom":20061,"##̄":30213,"nas":5944,"##/100":15850,"focused":4786,"maintenance":5365,"##.24":13116,"superior":5811,"borel":25878,"##∞.":26666,"anywhere":23958,"ethnicity":15393,"##iferase":12330,"rg":7104,"0.61":28794,"fy":18938,"comple":691,"quantit":2785,"spurious":21361,"ergebnisse":22282,"##uated":8397,"##inesterase":28657,"convention":13316,"washington":9224,"had":883,"fa":2016,"nond":10099,"##.59":23507,"##asaki":24550,"metab":15865,"ice":6282,"##cases":28761,"1983,":26476,"##oration":5291,"##institute":21183,"diversification":20166,"predictable":18176,"##picuous":26903,"role":1447,"repeats":13374,"lengthen":25684,"##/10.1021/":21506,"media":3871,"scn":24956,"influencing":12657,"distortion":9563,"infec":8056,"ur":1917,"exc":2143,"crude":11016,"format":6770,"herbal":22468,"tube":6166,"road":6229,"##0%":26973,"contempor":11411,"calculating":9215,"intraocular":25416,"##rup":3256,"##model":8885,"universally":24282,"dichotom":20768,"##acent":4853,"##derung":24225,"##éc":22491,"irf":23949,"fsh":21265,"##node":14139,"##dist":11859,"migraine":18937,"underwater":22629,"dbm":23116,"bri":7827,"nif":25401,"headache":15281,"##ek":4213,"blindness":28303,"##-18":10569,"thinning":24430,"##××":29901,"marker":5522,"whi":19238,"weighing":21334,"investigating":10211,"##far":10525,"impro":1069,"##typically":24187,"evolving":14187,"xin":24899,"##rystall":14167,"xue":27907,"endocard":22002,"secretory":17152,"cellulose":13631,"parental":9122,"##inear":13649,"tcs":28890,"foi":22480,"Γ":4214,"##bre":4056,"##vet":24929,"ideally":15305,"hyperbolic":17705,"0.40":17813,"longit":6667,"##igan":11575,"translational":12947,"proportional":6464,"discrepancy":12332,"inaccurate":20735,"proposing":25856,"telomere":20618,"beh":4873,"fj":13418,"dysplasia":19274,"utter":13448,"##roche":19024,"##qs":15094,"editor":6916,"infe":17072,"##233":28991,"effluent":20304,"fourier":8188,"watch":21075,"##gether":2736,"##έ":31031,"heterozyg":18544,"dropped":13037,"prevent":3363,"b":132,"##mid":4858,"##88":4582,"(33)":16895,"##......":16407,"resistance":2661,"##flag":21486,"darwin":26381,"ibid":25804,"forests":12514,"##enedi":28107,"##형":31030,"##remia":17853,"##umps":11478,"##apr":27167,"sending":12909,"(41)":22638,"##bd":5536,"replication":6436,"reactor":13393,"hansen":20423,"lec":9999,"[18]":9441,"##away":19691,"##aldrich":12146,"##ı":30241,"hol":4451,"##izumab":15241,"wil":5604,"ganz":19561,"##tb":11942,"##kp":16523,"tutorial":26878,"snapshots":27728,"##胞":30769,"##struc":963,"surrounding":7160,"1.7":10486,"wireless":5071,"convective":22184,"disks":16610,"thrombosis":13276,"⊆":6588,"bayes":16328,"tuberk":29500,"period":1275,"angeles":17882,"spec":477,"[48].":26919,"##aired":6990,"disconn":16932,"cui":25049,"##oblast":10595,"31%":29464,"official":10563,"surfactant":16391,"hdac":18948,"entered":11405,"reef":23477,"−0.0":20466,"synergistic":14530,"appreci":9325,"##dine":28934,"##)3":18227,"–2":27371,"##ت":30350,"fulfil":29132,"##ays":753,"excitations":23730,"schizoph":8744,"##vis":5332,"##genesis":19738,"orchestr":28745,"lincoln":28483,"##has":8356,"stemming":30102,"collis":7091,"normality":20285,"##hyth":6727,"105,":28930,"##mode":11140,"energy":1333,"rejected":13994,"recognised":19562,"##final":20827,"obstruction":12666,"numbered":26990,"exer":11188,"brains":15433,"break":4550,"##eks":26577,"qq":25377,"malignancy":14127,"199":622,"**":6202,"secondary":3287,"unc":4916,"leakage":9861,"##4/":8508,"(16,":29389,"wg":19815,"problems":2010,"juris":17238,"##eca":19057,"mid":2589,"winter":9305,"concludes":13868,"tiv":18154,"discom":19018,"secreted":12850,"ao":12436,"##insp":27007,"laboratory":3131,"mice":1682,"ack":20010,"express":3583,"##lectomy":23870,"(18).":20571,"invoked":21353,"langu":2198,"##fl":3381,"administration":3762,"leaving":10869,"korea":9112,"##wp":21429,"controlled":3643,"paragraph":14987,"##work":6236,"##iro":7995,"packets":6664,"bioactive":20052,"52,":19578,"downstream":7349,"##-2,":10071,"1991)":26064,"golden":22889,"cervix":28765,"shu":27746,"carp":17328,"conformational":12874,"necessary":2538,"survive":14413,"##nmr":16765,"##measure":15923,"identi":3907,"##cancer":14618,"cyt":2711,"encoun":6832,"approximation":4528,"##10,":8420,"population":1638,"cts":21303,"##.":30124,"retrans":19936,"parietal":15951,"uniformity":20145,"zhang":5527,"exacerb":12235,"terminal":6679,"##adal":26665,"granules":16040,"termin":5627,"##-3′":22062,"gly":3129,"antib":1826,"monitored":7633,"auch":6884,"ipa":27452,"relaxed":16024,"ξ":4387,"®":11025,"dramatic":12405,"##fall":6645,"propagation":6126,"1997),":20113,"lus":26672,"utilizing":10032,"transcript":7138,"traction":22898,"##uggle":24987,"##tively":931,"##letter":28406,"301":18771,"compromise":14382,"mobile":3650,"##lh":22512,"insulation":21726,"##estic":5639,"η":3827,"1√":19325,"5;":25031,"##farin":20669,"[[":18703,"##%":30156,"##etw":361,"sulfur":14159,"usa":2394,"##know":1789,"bipartite":21802,"filter":3499,"##sa":4172,"75,":23539,"pore":9514,"isotopes":27379,"##ann":783,"pap":1030,"##uar":23412,"##/19":24677,"0.92":24024,"##div":10380,"##ilic":10858,"continuously":8559,"##lactam":23246,"##what":6399,"neutralization":23904,"pyram":12983,"##apie":18188,"artificially":24143,"repositories":27766,"untersuchungen":22158,"##visual":22738,"vacu":6957,"##6;":2905,"vergle":20250,"[4":1950,"antihyper":20000,"##148":23658,"##values":6979,"nucleus":6438,"combine":9548,"suspicious":24481,"##-37":19782,"##vic":9617,"##/18":22746,"syringe":20229,"pcb":20294,"funds":11190,"appraisal":21972,"##xb":20614,"impose":15525,"general":1196,"##=10":27508,"##ification":1401,"verification":8225,"worksh":8338,"conjugate":12339,"cofactor":26480,"##rera":26397,"##arri":24375,"mutations":3995,"(3.4)":28141,"perturbative":29642,"estimate":2812,"when":603,"##itis":3626,"##nr":5921,"[unused39]":40,"stm":24628,"morphologically":23518,"progressively":15116,"colorado":19643,"extracellular":6636,"ware":16778,"shrink":14553,"stated":6114,"face":3942,"##br":682,"pollen":13149,"roots":7603,"##tainment":24597,"insert":12426,"microbiological":24762,"stat":1731,"##ahead":28033,"assist":4515,"##169":26448,"##orbent":15910,"globalization":27763,"adjoint":22813,"(2008).":12709,"enhancing":10786,"##ception":4934,"ank":18793,"3.7":14118,"hardware":5458,"134":16066,"jung":18096,"restrictive":17843,"paralle":2860,"dataset":4813,"##>.":27139,"mush":26391,"scho":7228,"ductal":24777,"##제":30806,"abstraction":11551,"##eder":15797,"hold":2837,"manif":4824,"ré":11409,"lowest":5480,"identity":4770,"##brid":2677,"##izers":13717,"5.7":18804,"put":3659,"glycemic":23254,"antifungal":20283,"employed":4208,"cong":10536,"nafld":27358,"fourteen":25521,"2,":1718,"supervisors":29128,"sensing":6247,"hemodialysis":22982,"0–":22569,"0.63":25768,"picture":7295,"##ay":240,"sek":18946,"##ystem":3618,"pair":2147,"arrested":29317,"military":10945,"sexually":19003,"##enic":12585,"##eti":3567,"bo":1743,"ternary":22259,"between":467,"##phosphate":11560,"isotropic":14692,"##uation":4685,"convolutional":21190,"femoral":11572,"uncorrelated":21646,"##inate":8692,"spermato":22293,"debates":28578,"##(2-":25834,"synapses":15109,"##awi":18265,"##bs":1690,"alanine":19120,"near":2396,"attachment":9458,"(10),":21547,"pharmac":4005,"rough":5687,"frequ":1088,"drain":9105,"peers":11706,"probabilistic":8920,"##ocyt":11241,"allerg":22503,"store":7522,"nist":28486,"##neum":5832,"osm":10678,"ethyl":10115,"##ischen":6271,"##andra":25005,"immunost":15549,"nutr":17530,"##tained":6639,"##urate":29502,"pol":663,"##zn":10529,"physici":4896,"##ahn":15616,"extreme":7424,"place":2608,"##ije":28720,"cab":10993,"colonic":17682,"##mart":16859,"##inae":26787,"leave":9689,"(\"":22337,"patterning":21012,"tra":1509,"cada":18553,"##get":1876,"hematopoietic":14549,"econ":2170,"##leb":27138,"##116":17828,"##:;":22946,"##2%":17463,"##ocial":9099,"##iratory":15429,"substituted":15256,"pseudo":8953,"minnesota":20346,"phthal":29894,"predicates":17269,"balancing":13018,"collec":1439,"##manifold":27466,"attempting":18010,"crystals":10020,"##apsed":13725,"##eman":9918,"reflection":8519,"27.":10232,"distinctly":26256,"##arel":21204,"hepatitis":8970,"##oplasmic":18962,"accounting":9314,"##jin":22527,"##0]":17569,"##ods":9497,"##!,":20013,"circuitry":20882,"counter":4227,"swap":24709,"cytokines":7197,"removal":5217,"mak":1963,"functor":20512,"##lg":19735,"##adrenal":23915,"soc":1449,"gap":4502,"##fuzzy":29538,"(48":27168,"commission":9300,"##omide":24066,"##1,":587,"kas":17775,"esr":24851,"##211":28788,"modelling":7186,"calc":992,"##12].":22555,"agreements":19255,"##28.":24299,"##001":14085,"partners":6830,"topics":8746,"virtual":4299,"capacitors":20170,"1)-":24961,"##0)":1119,"catechol":18852,"##algorith":20964,"##tiva":24736,"grav":10377,"crisis":11491,"17,":8521,"compelling":21455,"##iel":29747,"oliveira":28571,"warranted":18037,"rochester":26901,"deduced":15869,"[10],":13384,"1990),":29623,"aga":12297,"ovem":24318,"scope":7128,"##correspondence":23901,"takes":4374,"controllers":12567,"remove":6597,"suppressive":26817,"##rief":4158,"##235":25999,"##last":15404,"droplets":16381,"##ternal":3255,"acquired":5967,"hsu":27525,"catalog":13577,"##iciency":2066,"lactic":23827,"##et":160,"desired":4944,"kelly":21846,"means":2033,"species":1578,"##concept":20450,"standardization":17406,"electromagnetic":10610,"##з":30379,"sib":11463,"zn":7081,"##ast":464,"gained":10845,"##时":30799,"ux":20844,"wohl":25275,"##falls":16994,"corners":20717,"arbor":22838,"##band":4828,"macular":20284,"proactive":22167,"##tedly":23097,"massachusetts":13653,"operative":12741,"##stand":1710,"xx":7573,"wlan":26468,"##ensitive":14592,"##vest":22722,"[unused48]":49,"disclos":8750,"##⊲":30892,"##traumatic":21389,"tk":10162,"##scan":17073,"##children":27713,"##prone":27449,"zeros":17422,"loh":25495,"##2":30132,
[...]
